<pad>	0
<s>	0
</s>	0
<unk>	0
▁the	-2.78264
,	-3.07961
.	-3.38511
▁of	-3.45998
▁to	-3.53518
▁and	-3.69718
▁in	-3.94758
▁that	-4.18702
▁a	-4.22037
▁is	-4.22539
▁for	-4.61986
▁I	-4.62681
▁on	-4.74825
s	-4.84002
▁be	-4.84511
▁this	-4.85504
▁we	-4.89232
▁are	-5.03991
▁have	-5.08585
▁it	-5.09023
▁not	-5.1356
▁with	-5.20209
▁as	-5.20685
▁which	-5.23441
▁European	-5.27509
▁The	-5.36985
▁will	-5.39066
▁by	-5.40238
-	-5.42721
▁has	-5.51624
'	-5.62146
▁Mr	-5.67198
▁Commission	-5.78415
▁an	-5.82414
▁at	-5.8309
▁would	-5.8381
▁also	-5.85256
▁should	-5.89638
▁all	-5.89826
▁President	-5.9274
▁-	-5.93788
▁from	-5.9466
▁We	-5.96015
▁our	-5.96991
▁must	-5.97925
▁but	-6.03082
▁been	-6.06289
▁Union	-6.11668
▁Parliament	-6.1575
▁It	-6.16935
▁you	-6.17941
▁can	-6.19279
▁was	-6.23225
▁Member	-6.23714
▁more	-6.24928
▁report	-6.2652
▁or	-6.27249
▁States	-6.2845
▁its	-6.30422
▁their	-6.32044
▁Council	-6.32108
▁do	-6.32298
▁like	-6.33375
▁there	-6.33595
▁very	-6.37114
▁Europe	-6.38666
▁In	-6.41258
▁This	-6.41435
▁these	-6.43736
▁EU	-6.44329
▁they	-6.45766
▁one	-6.47029
▁(	-6.50005
▁countries	-6.50139
▁so	-6.52709
▁who	-6.53763
▁about	-6.56572
▁other	-6.57002
▁what	-6.57903
)	-6.58248
▁need	-6.58465
▁us	-6.59141
▁important	-6.6394
▁people	-6.6513
▁my	-6.65167
▁only	-6.66706
▁new	-6.67009
:	-6.67027
▁time	-6.68037
▁policy	-6.69184
▁because	-6.71405
ing	-6.71734
▁if	-6.7186
▁no	-6.74763
▁up	-6.79661
▁am	-6.80172
▁out	-6.81614
▁support	-6.81701
▁now	-6.82288
?	-6.8352
▁such	-6.83689
▁take	-6.85984
▁make	-6.86123
▁into	-6.88584
▁between	-6.89118
▁work	-6.89532
▁those	-6.89708
▁rights	-6.95726
▁therefore	-6.9674
▁when	-6.96757
▁some	-6.97787
▁any	-6.9911
▁being	-6.99279
▁political	-7.01528
▁them	-7.01888
▁made	-7.0249
▁were	-7.03309
▁way	-7.04756
▁than	-7.05469
▁economic	-7.0559
▁believe	-7.06109
;	-7.06128
▁Commissioner	-7.0621
ed	-7.09266
▁say	-7.09986
▁proposal	-7.12027
▁many	-7.12804
▁against	-7.12883
▁fact	-7.13197
▁first	-7.15576
▁debate	-7.16506
▁social	-7.17588
▁market	-7.17753
▁	-7.19872
▁That	-7.19883
▁think	-7.20292
▁development	-7.22526
▁issue	-7.22618
▁Committee	-7.22791
▁just	-7.22911
▁well	-7.23483
▁point	-7.23505
’	-7.23841
▁years	-7.25549
▁human	-7.25805
▁order	-7.26276
▁situation	-7.27257
▁future	-7.27901
▁right	-7.27962
▁question	-7.28139
▁two	-7.28933
▁country	-7.29162
▁cannot	-7.29506
▁'	-7.30156
▁want	-7.30227
▁here	-7.30285
▁citizens	-7.30295
▁same	-7.31001
▁even	-7.3123
▁does	-7.31231
▁had	-7.31408
▁possible	-7.31716
▁As	-7.32099
▁measures	-7.32375
▁part	-7.33948
▁could	-7.34165
▁public	-7.34786
▁said	-7.3544
▁today	-7.35838
▁most	-7.3593
▁me	-7.36944
▁agreement	-7.37302
▁clear	-7.37474
▁much	-7.37942
▁good	-7.38732
▁where	-7.38757
▁already	-7.38778
▁national	-7.38941
▁over	-7.40545
▁–	-7.40684
▁too	-7.40707
▁financial	-7.409
▁vote	-7.41072
▁within	-7.41764
▁know	-7.42693
▁year	-7.42952
▁still	-7.43009
▁how	-7.43667
▁There	-7.44538
▁under	-7.44632
▁common	-7.44793
▁use	-7.44795
▁see	-7.44925
▁both	-7.45236
▁However	-7.45287
▁particular	-7.45297
▁Mrs	-7.46314
▁cooperation	-7.47534
▁course	-7.47577
▁view	-7.48168
▁hope	-7.4908
▁Community	-7.49139
▁world	-7.49243
▁your	-7.49485
ly	-7.50075
▁taken	-7.51057
▁level	-7.51254
▁international	-7.51406
▁ensure	-7.51465
▁own	-7.51521
▁system	-7.51737
▁case	-7.52186
▁able	-7.53255
▁area	-7.53301
▁his	-7.5397
▁place	-7.55253
▁process	-7.56738
▁why	-7.5693
▁energy	-7.57269
▁put	-7.57526
d	-7.58129
▁rapporteur	-7.58234
▁number	-7.59093
▁last	-7.59256
▁means	-7.60014
▁problem	-7.60248
▁action	-7.60303
▁may	-7.60392
▁example	-7.60642
▁then	-7.60661
▁information	-7.60937
▁gentlemen	-7.61814
▁without	-7.62767
▁through	-7.63297
▁he	-7.63971
▁however	-7.6404
▁House	-7.64057
▁directive	-7.64295
▁If	-7.64973
▁problems	-7.65478
▁budget	-7.66258
▁A	-7.66728
▁Madam	-7.67691
▁end	-7.67988
▁necessary	-7.68072
▁particularly	-7.68164
▁long	-7.68725
▁s	-7.69105
▁give	-7.69186
▁great	-7.69475
▁protection	-7.69513
▁before	-7.70002
▁resolution	-7.70638
▁issues	-7.70855
▁respect	-7.7117
▁far	-7.71483
▁security	-7.71576
▁given	-7.72182
▁regard	-7.72186
▁position	-7.72242
▁legal	-7.72606
▁law	-7.72683
▁areas	-7.73445
▁Treaty	-7.73453
▁matter	-7.73774
▁Group	-7.74677
▁women	-7.76195
▁thank	-7.77312
▁whether	-7.77704
▁decision	-7.7803
▁again	-7.78393
▁sector	-7.78409
▁ladies	-7.78473
▁amendments	-7.78821
▁set	-7.78835
▁United	-7.79581
▁favour	-7.79988
▁role	-7.80287
▁further	-7.80304
▁behalf	-7.81173
▁since	-7.81204
▁programme	-7.81811
▁basis	-7.82836
▁proposals	-7.82985
▁terms	-7.83044
▁next	-7.83589
▁Members	-7.836
▁certain	-7.84346
▁trade	-7.84397
▁aid	-7.85076
▁services	-7.85181
▁done	-7.85694
▁rules	-7.86045
▁come	-7.86105
in	-7.86282
▁health	-7.86613
▁adopted	-7.87656
▁crisis	-7.87743
▁legislation	-7.87865
▁help	-7.87999
▁agree	-7.88159
▁different	-7.88242
▁better	-7.88384
▁present	-7.8942
▁framework	-7.8983
▁continue	-7.92028
▁What	-7.92351
▁opinion	-7.92656
▁change	-7.92734
▁needs	-7.92875
▁progress	-7.93227
▁But	-7.93612
▁institutions	-7.94094
▁For	-7.94433
▁ask	-7.94461
▁wish	-7.9548
▁after	-7.9562
▁concerned	-7.96599
▁group	-7.97012
▁result	-7.97165
▁forward	-7.97704
▁going	-7.98146
▁State	-7.98371
▁working	-7.98753
▁welcome	-7.98792
▁whole	-7.99101
▁three	-7.99203
▁towards	-7.99793
▁few	-7.99808
▁approach	-8.00986
▁something	-8.01017
▁voted	-8.01125
▁go	-8.02506
▁principle	-8.02526
▁subject	-8.03423
▁current	-8.0386
▁resources	-8.04285
▁conditions	-8.04464
▁including	-8.05714
▁importance	-8.06453
▁Presidency	-8.06535
▁proposed	-8.06617
▁opportunity	-8.06694
▁million	-8.06812
▁specific	-8.07148
▁really	-8.07187
▁shall	-8.07274
▁did	-8.07561
▁provide	-8.07643
▁employment	-8.07797
▁increase	-8.08165
▁second	-8.08256
▁state	-8.08266
▁On	-8.08308
▁authorities	-8.08315
▁policies	-8.08483
▁together	-8.08567
e	-8.08652
▁account	-8.09017
▁used	-8.09255
▁especially	-8.10151
▁every	-8.10462
▁during	-8.10556
▁down	-8.10607
▁regulation	-8.10741
▁industry	-8.11096
▁find	-8.11107
▁transport	-8.1126
▁general	-8.11314
▁high	-8.1219
▁become	-8.12346
▁strategy	-8.12352
al	-8.12389
▁clearly	-8.12403
▁negotiations	-8.12404
▁itself	-8.13165
▁another	-8.13352
▁third	-8.13433
▁environmental	-8.13485
▁greater	-8.13669
▁responsibility	-8.13861
▁serious	-8.14099
▁quite	-8.14139
▁least	-8.14157
m	-8.14642
▁safety	-8.14837
▁products	-8.15065
▁research	-8.15637
▁rather	-8.15693
▁small	-8.16114
▁They	-8.16937
▁No	-8.17024
▁reason	-8.17325
▁real	-8.18195
▁democracy	-8.18392
▁call	-8.18415
▁always	-8.18615
▁difficult	-8.19279
▁fundamental	-8.19382
▁essential	-8.19458
▁attention	-8.19539
▁access	-8.19779
▁making	-8.19967
▁effective	-8.2002
▁achieve	-8.20359
▁once	-8.20413
▁These	-8.2046
▁deal	-8.20622
▁freedom	-8.20777
▁regions	-8.21189
▁.	-8.21266
▁interests	-8.21859
▁things	-8.21965
▁society	-8.2215
▁major	-8.22324
▁implementation	-8.22671
▁based	-8.22685
▁taking	-8.22713
▁economy	-8.22925
▁At	-8.2299
▁internal	-8.23032
▁hand	-8.23369
▁democratic	-8.23527
▁get	-8.23719
▁efforts	-8.24443
▁environment	-8.24549
▁various	-8.24807
▁money	-8.24992
▁government	-8.25337
▁positive	-8.25461
▁free	-8.26159
▁large	-8.26329
▁each	-8.26814
▁back	-8.27043
▁words	-8.27543
▁allow	-8.28437
▁yet	-8.2845
▁points	-8.28603
▁So	-8.28744
er	-8.28857
▁procedure	-8.2903
▁while	-8.29115
▁committee	-8.29713
▁competition	-8.30168
▁look	-8.30329
▁region	-8.30493
▁consider	-8.3053
▁less	-8.30579
▁single	-8.3058
/	-8.31038
▁involved	-8.31097
▁funds	-8.31107
▁full	-8.31739
▁growth	-8.32082
▁having	-8.32457
▁Affairs	-8.32485
▁concerns	-8.32635
▁Government	-8.32695
▁control	-8.32727
▁children	-8.32728
▁workers	-8.32785
▁reform	-8.32999
▁EUR	-8.33872
▁peace	-8.3454
▁step	-8.34557
▁power	-8.3456
▁companies	-8.34588
t	-8.34704
▁Lisbon	-8.35386
▁objectives	-8.35394
▁interest	-8.36056
▁solution	-8.36162
▁best	-8.36191
▁quality	-8.36662
▁fully	-8.3672
▁food	-8.36734
▁programmes	-8.3697
▁amendment	-8.37121
▁majority	-8.3721
▁global	-8.37378
▁her	-8.37446
y	-8.37626
▁agreements	-8.38162
▁standards	-8.38542
▁dialogue	-8.38719
▁often	-8.38801
▁simply	-8.38847
▁following	-8.38856
▁certainly	-8.39064
▁recent	-8.3941
▁decisions	-8.39951
▁bring	-8.40067
▁agricultural	-8.40332
▁concern	-8.40468
se	-8.40735
▁production	-8.40816
▁extremely	-8.40897
▁force	-8.4093
▁Turkey	-8.41168
▁aware	-8.41314
▁relations	-8.41373
▁accept	-8.41711
▁main	-8.41736
▁text	-8.41739
▁context	-8.41869
▁create	-8.42567
▁To	-8.42905
▁groups	-8.43205
▁ago	-8.43639
▁initiative	-8.43911
▁period	-8.441
▁life	-8.44525
▁risk	-8.44847
▁enlargement	-8.44865
▁might	-8.4497
▁objective	-8.45229
▁actually	-8.45448
▁fight	-8.4546
▁developing	-8.45556
▁form	-8.45785
▁states	-8.46579
▁improve	-8.46866
▁mentioned	-8.46891
▁Court	-8.46926
▁available	-8.47165
▁start	-8.47404
▁regional	-8.47814
▁Let	-8.47895
▁non	-8.47944
▁indeed	-8.48119
▁questions	-8.48132
▁jobs	-8.4818
▁Article	-8.4832
▁appropriate	-8.48381
▁meeting	-8.48458
▁climate	-8.4857
▁And	-8.4882
▁open	-8.49075
▁impact	-8.49123
▁Finally	-8.49267
▁Russia	-8.49562
▁currently	-8.49623
▁field	-8.49793
▁concerning	-8.49813
▁results	-8.50422
▁understand	-8.50733
!	-8.5083
▁education	-8.51289
▁You	-8.51449
▁responsible	-8.5233
▁others	-8.52489
▁let	-8.53253
▁consumers	-8.53346
▁themselves	-8.53352
▁key	-8.53353
n	-8.53411
▁months	-8.53835
▁euro	-8.53998
▁data	-8.54305
▁writing	-8.54376
▁1	-8.54762
▁doing	-8.5493
▁members	-8.54993
▁thing	-8.55048
▁management	-8.55243
▁needed	-8.55316
▁cases	-8.55822
▁With	-8.55918
▁systems	-8.56806
▁re	-8.56832
▁matters	-8.57107
▁principles	-8.57201
▁compromise	-8.57267
▁enough	-8.57274
▁day	-8.57355
▁tax	-8.57597
▁reasons	-8.57856
▁individual	-8.57872
▁kind	-8.579
▁projects	-8.59884
▁parties	-8.59885
▁though	-8.59902
▁longer	-8.59944
▁costs	-8.60031
▁achieved	-8.60295
▁Convention	-8.60455
▁feel	-8.60587
▁lack	-8.60674
▁promote	-8.60781
▁special	-8.61039
▁regards	-8.61173
▁activities	-8.61212
▁commitment	-8.61416
▁local	-8.61471
▁draft	-8.61571
▁among	-8.61597
▁funding	-8.61605
▁plan	-8.61647
▁idea	-8.61806
▁joint	-8.61999
▁priority	-8.62418
▁significant	-8.62853
▁line	-8.63042
▁past	-8.63102
▁aim	-8.63158
▁although	-8.63635
▁act	-8.63676
▁true	-8.63703
▁congratulate	-8.63866
▁little	-8.64093
▁mean	-8.64394
A	-8.64505
▁due	-8.64606
▁labour	-8.64623
▁legislative	-8.6484
▁governments	-8.64875
▁sure	-8.64909
▁nothing	-8.65224
▁excellent	-8.65263
▁final	-8.65365
▁effect	-8.65409
▁provided	-8.65452
▁strong	-8.65524
▁My	-8.65577
▁prevent	-8.65727
▁sustainable	-8.66278
▁perhaps	-8.66597
▁Amendment	-8.66663
▁lead	-8.66918
▁include	-8.66996
▁Directive	-8.6708
▁young	-8.67416
a	-8.67429
▁guarantee	-8.67475
▁nuclear	-8.67626
▁solidarity	-8.68102
▁moment	-8.68273
▁above	-8.68509
▁C	-8.686
▁reports	-8.68621
Office	-8.68628
r	-8.68847
▁agenda	-8.68857
▁regarding	-8.68939
▁play	-8.69157
▁Rights	-8.69268
▁agreed	-8.69516
▁project	-8.69576
▁aspects	-8.69777
▁remain	-8.69858
▁foreign	-8.70446
▁pay	-8.70651
▁markets	-8.70812
▁transparency	-8.70835
▁integration	-8.70856
▁consumer	-8.70917
▁seen	-8.70999
▁several	-8.71749
▁relation	-8.72028
▁civil	-8.72102
▁addition	-8.72107
▁Our	-8.72482
▁response	-8.72619
▁contribution	-8.72672
▁benefit	-8.72695
▁population	-8.73254
▁apply	-8.73277
▁tomorrow	-8.73709
▁upon	-8.73776
▁comes	-8.73921
▁short	-8.74089
▁business	-8.74321
▁makes	-8.7452
▁share	-8.74912
▁speak	-8.74937
▁discussion	-8.75001
▁actions	-8.75028
▁communication	-8.75293
▁technical	-8.75294
▁move	-8.75977
▁answer	-8.7604
▁Therefore	-8.76138
▁Secondly	-8.76236
▁practice	-8.76245
▁values	-8.76541
▁terrorism	-8.76641
▁him	-8.76648
▁investment	-8.76816
▁criteria	-8.76891
▁seems	-8.77076
▁000	-8.77281
▁colleagues	-8.77331
▁provisions	-8.77422
▁elections	-8.77538
▁pleased	-8.77575
term	-8.77628
▁accession	-8.77801
▁voting	-8.77885
▁existing	-8.77945
▁One	-8.77971
▁war	-8.78203
▁‘	-8.78798
▁stability	-8.79275
▁changes	-8.7929
▁ourselves	-8.79594
▁Minister	-8.79765
▁procedures	-8.79838
DE	-8.80194
▁violence	-8.80328
▁soon	-8.80345
▁express	-8.80748
▁mind	-8.80785
es	-8.80877
▁China	-8.80964
▁until	-8.81066
▁cohesion	-8.81135
▁creation	-8.8116
▁assistance	-8.81194
▁adopt	-8.81388
▁basic	-8.81421
▁develop	-8.81481
▁poverty	-8.8153
▁crucial	-8.81696
▁everyone	-8.81711
▁service	-8.81782
▁never	-8.81985
▁off	-8.82392
▁success	-8.82423
▁sense	-8.82688
▁carried	-8.82735
▁saying	-8.82884
▁protect	-8.83318
▁draw	-8.83648
▁military	-8.83744
▁statement	-8.83789
▁asked	-8.83873
▁consequences	-8.83889
▁tabled	-8.83898
▁term	-8.83926
▁increased	-8.83945
▁regulations	-8.84079
▁cultural	-8.84226
▁balance	-8.84352
▁equal	-8.84371
▁organisations	-8.84507
▁held	-8.84582
▁reduce	-8.84594
▁de	-8.84599
▁relating	-8.8465
▁farmers	-8.84771
▁increasing	-8.85019
▁show	-8.85162
▁item	-8.8517
▁rule	-8.85281
▁application	-8.85312
▁UN	-8.85338
▁close	-8.8535
▁namely	-8.85465
▁training	-8.85596
▁request	-8.85827
▁requirements	-8.86228
▁required	-8.86387
▁All	-8.86593
▁meet	-8.86638
▁fishing	-8.86661
▁everything	-8.86909
▁presented	-8.87128
▁job	-8.87224
▁Thank	-8.8769
▁thus	-8.87797
▁stage	-8.87979
▁value	-8.8803
▁face	-8.88054
▁instruments	-8.88118
▁opportunities	-8.88567
▁closed	-8.88857
▁When	-8.88942
g	-8.89004
▁throughout	-8.8922
▁nature	-8.89773
▁priorities	-8.89837
▁cost	-8.89938
▁either	-8.89976
▁week	-8.90005
▁budgetary	-8.90082
▁mention	-8.90655
▁called	-8.90662
▁keep	-8.90697
▁demand	-8.91558
▁around	-8.91568
▁times	-8.91721
▁community	-8.91843
▁conflict	-8.92033
▁initiatives	-8.92081
▁tell	-8.92201
▁decided	-8.92227
▁Party	-8.92297
▁movement	-8.92541
▁external	-8.92655
▁she	-8.92718
▁road	-8.92766
▁direction	-8.93276
ers	-8.93504
▁instrument	-8.9368
▁pressure	-8.9384
▁10	-8.94087
▁task	-8.9413
▁Fund	-8.9417
▁across	-8.94272
▁address	-8.9429
▁previous	-8.94507
▁reached	-8.94518
▁five	-8.94674
▁prepared	-8.94772
▁package	-8.94812
▁potential	-8.94945
c	-8.95006
▁raised	-8.95151
▁expressed	-8.95189
re	-8.95209
▁water	-8.95287
▁monitoring	-8.9547
▁effort	-8.95725
▁conclusion	-8.95753
▁reading	-8.9601
▁talking	-8.96132
▁review	-8.96164
▁four	-8.96386
▁establish	-8.96389
▁justice	-8.96405
l	-8.96482
o	-8.96515
▁using	-8.96584
▁doubt	-8.96661
▁powers	-8.96858
▁implement	-8.96858
▁illegal	-8.96922
▁light	-8.97049
▁implemented	-8.9721
▁focus	-8.97234
▁challenges	-8.97254
▁billion	-8.97528
▁experience	-8.97545
▁try	-8.97867
▁waste	-8.9787
▁medium	-8.97877
▁private	-8.97922
▁Ireland	-8.98028
▁included	-8.98152
▁fisheries	-8.98179
▁fellow	-8.98179
▁fair	-8.98508
▁p	-8.98543
▁vital	-8.98624
▁immigration	-8.98675
▁enable	-8.98807
▁crime	-8.98829
▁levels	-8.99005
▁ever	-8.99077
▁absolutely	-8.9908
▁quickly	-8.99209
▁French	-8.99244
▁reduction	-8.99374
▁partners	-8.99429
▁established	-8.9968
▁presidency	-8.99856
▁borders	-8.99956
▁recently	-8.99998
▁victims	-9.00164
▁outside	-9.00306
▁coming	-9.00557
▁reality	-9.00637
▁talk	-9.00765
b	-9.00808
▁agriculture	-9.00839
▁Conference	-9.01009
▁B	-9.01458
▁France	-9.01619
▁supported	-9.01654
▁price	-9.01673
▁effects	-9.01868
▁12	-9.01944
▁Development	-9.01946
▁20	-9.0197
2	-9.0224
▁found	-9.02293
▁amount	-9.02299
▁completely	-9.02476
▁live	-9.02577
▁structural	-9.0272
▁S	-9.02733
▁sectors	-9.02874
▁note	-9.03269
▁brought	-9.03341
▁treatment	-9.04
▁thanks	-9.0401
▁motion	-9.04038
▁giving	-9.04111
▁reach	-9.04157
▁left	-9.0417
▁reforms	-9.04241
▁cause	-9.04827
▁direct	-9.04867
▁finally	-9.05071
▁emissions	-9.05077
▁extent	-9.05225
▁prices	-9.05289
▁December	-9.05491
▁encourage	-9.05535
▁additional	-9.05617
▁model	-9.05638
▁unemployment	-9.05743
▁Republic	-9.05847
▁received	-9.05874
▁representatives	-9.05945
▁businesses	-9.05956
▁possibility	-9.06025
▁applied	-9.0604
▁took	-9.06042
▁Nations	-9.06055
▁follow	-9.0609
▁document	-9.06157
▁stress	-9.06283
▁along	-9.06345
▁Africa	-9.06346
▁heard	-9.06446
▁2	-9.06524
▁almost	-9.06621
▁approved	-9.0678
▁Firstly	-9.06821
▁coordination	-9.06876
▁ensuring	-9.07116
▁15	-9.07373
▁care	-9.07533
▁US	-9.07783
▁cross	-9.07888
or	-9.07914
▁discussed	-9.0792
▁away	-9.07958
▁natural	-9.07984
▁relevant	-9.0828
▁air	-9.08325
▁behind	-9.08402
▁living	-9.08447
▁strengthen	-9.08497
▁practical	-9.08591
▁creating	-9.08662
▁list	-9.08728
▁assessment	-9.08762
▁Furthermore	-9.08768
▁add	-9.08828
▁avoid	-9.08897
▁competitiveness	-9.09065
▁adoption	-9.09153
▁offer	-9.09196
▁East	-9.09264
▁Bank	-9.09276
th	-9.0933
▁lot	-9.09641
▁confidence	-9.09675
▁turn	-9.09789
▁events	-9.10207
▁He	-9.10211
▁discussions	-9.10313
▁men	-9.10327
▁begin	-9.10454
▁unacceptable	-9.10759
▁British	-9.10791
▁guidelines	-9.10861
▁parliamentary	-9.10921
▁expect	-9.11165
▁proper	-9.11249
▁nor	-9.11313
▁discuss	-9.11486
▁Of	-9.11567
▁capacity	-9.1159
▁remains	-9.1162
▁knowledge	-9.11841
▁per	-9.12073
▁stop	-9.12424
▁scope	-9.12456
C	-9.12596
▁days	-9.1284
▁summit	-9.13089
▁G	-9.13473
▁side	-9.13646
▁considered	-9.13652
▁family	-9.13798
▁discrimination	-9.14004
▁affected	-9.14119
▁despite	-9.14329
▁solutions	-9.14337
▁rate	-9.14385
▁aimed	-9.14387
▁old	-9.14408
▁humanitarian	-9.14479
▁3	-9.14562
▁effectively	-9.14615
▁six	-9.14621
▁un	-9.1465
▁Democrats	-9.14725
▁contribute	-9.14756
▁May	-9.14761
▁Agreement	-9.15102
▁sitting	-9.15366
▁Central	-9.15401
▁precisely	-9.15522
▁criminal	-9.15667
▁difficulties	-9.15671
▁asylum	-9.15679
▁trying	-9.15708
▁takes	-9.15915
▁defence	-9.15929
▁International	-9.16007
▁remind	-9.1602
▁First	-9.16264
▁Economic	-9.16484
▁efficiency	-9.16504
▁shown	-9.16527
▁combat	-9.16542
▁carry	-9.1668
▁June	-9.16699
▁instead	-9.16864
▁Justice	-9.16882
▁message	-9.16906
▁connection	-9.16957
▁reference	-9.17042
▁developed	-9.17155
▁goods	-9.17278
▁honourable	-9.17383
▁hard	-9.17609
▁partnership	-9.17612
▁regime	-9.17711
▁accordance	-9.17747
▁circumstances	-9.17798
▁World	-9.1783
▁beginning	-9.179
▁huge	-9.17926
▁11	-9.17929
▁culture	-9.18
▁People	-9.18048
able	-9.18402
▁technology	-9.1852
▁active	-9.18804
▁improving	-9.18923
up	-9.18925
▁capital	-9.18978
▁according	-9.18997
▁administrative	-9.19042
▁committed	-9.19263
▁challenge	-9.19324
▁%	-9.19332
▁personal	-9.19539
▁conclusions	-9.19597
▁speech	-9.19689
▁total	-9.19733
ity	-9.19818
▁death	-9.19823
▁allowed	-9.19826
▁Germany	-9.19827
▁providing	-9.19943
▁goes	-9.2001
▁oil	-9.2017
▁created	-9.2019
▁central	-9.20242
▁forces	-9.20281
▁comments	-9.20334
▁propose	-9.20392
▁innovation	-9.20392
▁Regulation	-9.20426
▁enterprises	-9.20464
▁return	-9.20569
▁date	-9.20576
▁independent	-9.20626
▁institutional	-9.20632
ation	-9.2075
▁stand	-9.20752
▁purpose	-9.20773
▁minimum	-9.20784
▁status	-9.20836
▁consideration	-9.20953
▁content	-9.21037
▁self	-9.2111
▁duty	-9.21233
▁considerable	-9.21241
▁Social	-9.21328
▁half	-9.21389
▁accepted	-9.21434
▁rightly	-9.21647
▁anti	-9.21811
▁Policy	-9.2191
▁benefits	-9.21996
▁Now	-9.22066
▁WTO	-9.22156
▁media	-9.2217
▁successful	-9.2221
▁supply	-9.22245
▁implementing	-9.22538
▁provides	-9.22603
▁Brussels	-9.22751
▁participation	-9.22839
▁receive	-9.22934
▁stated	-9.23016
▁provision	-9.23092
▁unfortunately	-9.23101
▁rural	-9.23314
▁colleague	-9.23411
▁promoting	-9.23456
▁calls	-9.23742
▁lives	-9.23772
▁referred	-9.23795
▁closely	-9.23962
▁dealing	-9.24109
▁seriously	-9.24295
▁specifically	-9.24304
▁overall	-9.24536
▁forms	-9.24631
▁Israel	-9.24972
▁"	-9.25203
▁decide	-9.25288
▁beyond	-9.25856
st	-9.26214
European	-9.26255
▁complete	-9.26277
▁co	-9.26288
▁introduction	-9.26383
▁urgent	-9.2644
▁history	-9.26584
▁scientific	-9.26599
▁happen	-9.2669
▁industrial	-9.26785
▁Kosovo	-9.26876
▁wanted	-9.27065
▁Human	-9.27134
▁strategic	-9.27241
▁expenditure	-9.2728
▁plans	-9.27345
▁directly	-9.27385
▁Today	-9.27561
▁financing	-9.27673
▁exchange	-9.27734
▁views	-9.27751
▁Mediterranean	-9.27871
▁produce	-9.28086
S	-9.2813
▁wrong	-9.28223
▁Iraq	-9.28286
▁maintain	-9.28366
▁requires	-9.28468
▁steps	-9.28485
▁leave	-9.28514
▁measure	-9.28721
▁ban	-9.28895
▁Irish	-9.28986
sized	-9.29395
▁commitments	-9.29469
▁equality	-9.29548
▁setting	-9.29945
▁myself	-9.3002
▁home	-9.30027
▁Constitution	-9.30067
▁intended	-9.30176
▁January	-9.30209
▁Summit	-9.30266
▁demands	-9.30403
▁activity	-9.30421
▁event	-9.30545
▁join	-9.30608
▁sufficient	-9.30651
▁German	-9.30657
▁police	-9.30702
▁How	-9.30722
▁low	-9.30752
▁aspect	-9.3083
▁party	-9.30838
▁entire	-9.30853
▁ten	-9.30987
▁exist	-9.31021
▁similar	-9.31201
▁paid	-9.31261
▁gas	-9.31417
▁poor	-9.3167
▁respond	-9.31823
it	-9.31957
p	-9.31999
▁alone	-9.32006
▁speaking	-9.32049
▁represent	-9.32199
▁E	-9.32239
▁paragraph	-9.32304
▁bodies	-9.32314
▁highly	-9.32341
▁efficient	-9.32459
▁anything	-9.32469
▁conclude	-9.32503
▁Greece	-9.32527
▁competitive	-9.32657
▁refer	-9.32941
▁led	-9.3301
▁properly	-9.33042
ness	-9.33132
▁ambitious	-9.33345
▁supporting	-9.33411
▁yesterday	-9.33481
▁product	-9.33516
▁5	-9.33575
▁higher	-9.33605
▁fund	-9.33711
▁border	-9.33783
▁type	-9.33836
▁animal	-9.33891
▁limited	-9.34051
▁discussing	-9.34103
▁weeks	-9.34113
The	-9.34119
▁known	-9.34155
▁Although	-9.34227
▁ways	-9.34255
▁shows	-9.34528
▁Rules	-9.34531
▁increasingly	-9.34692
▁caused	-9.3471
ic	-9.34792
▁calling	-9.3481
▁Unfortunately	-9.35058
▁establishing	-9.35137
▁opposition	-9.35158
▁whom	-9.35168
▁genuine	-9.35223
▁authority	-9.35241
▁improved	-9.3536
▁useful	-9.35834
▁early	-9.35859
▁regret	-9.35888
▁study	-9.35916
▁achieving	-9.36035
i	-9.36053
▁represents	-9.36213
▁hear	-9.36273
▁risks	-9.36331
▁emphasise	-9.3641
▁urge	-9.36425
▁happened	-9.36511
ur	-9.36682
B	-9.3669
border	-9.37031
▁strengthening	-9.37044
▁comment	-9.37047
▁annual	-9.37058
▁limit	-9.37184
▁reducing	-9.37269
FR	-9.37282
▁Minutes	-9.37289
▁produced	-9.37346
▁obviously	-9.37433
▁threat	-9.37447
▁Security	-9.37554
▁Since	-9.37615
▁manner	-9.37718
▁South	-9.37844
▁influence	-9.37871
▁candidate	-9.37975
▁thought	-9.38048
▁spirit	-9.38105
▁aims	-9.38241
▁later	-9.38451
▁March	-9.38459
▁convinced	-9.38591
▁outcome	-9.38594
▁require	-9.38597
called	-9.38663
▁name	-9.38671
to	-9.38746
▁infrastructure	-9.38801
▁met	-9.38814
▁currency	-9.38867
▁statements	-9.38895
▁producers	-9.38973
▁gives	-9.39093
▁former	-9.39233
▁looking	-9.39254
▁broad	-9.39344
▁trust	-9.39469
▁Moreover	-9.39551
▁rise	-9.39598
▁Foreign	-9.39654
▁language	-9.39659
responsibilities	-9.39675
▁25	-9.39685
en	-9.39715
▁animals	-9.3976
▁remember	-9.39764
▁hold	-9.39823
an	-9.39899
▁Italy	-9.39988
▁cut	-9.40167
▁recognise	-9.40238
▁combating	-9.4035
▁balanced	-9.40438
▁firstly	-9.40442
▁monetary	-9.40512
▁developments	-9.40542
▁conference	-9.40628
no	-9.4072
▁damage	-9.40768
▁sometimes	-9.40827
▁member	-9.40889
▁rest	-9.4109
▁earlier	-9.41143
making	-9.41151
▁recognition	-9.41164
▁analysis	-9.41185
▁concrete	-9.4146
8	-9.41519
▁dangerous	-9.41526
▁building	-9.41579
▁concept	-9.41727
▁introduce	-9.41749
5	-9.41811
▁acceptable	-9.41827
▁4	-9.41956
▁elements	-9.41977
▁entirely	-9.42095
▁Spanish	-9.4214
▁word	-9.42156
▁contrary	-9.42311
▁becoming	-9.42397
▁press	-9.4261
▁documents	-9.42673
▁prevention	-9.42735
▁Romania	-9.42735
▁introduced	-9.42769
▁comprehensive	-9.42792
▁facing	-9.42868
▁American	-9.42895
▁thinking	-9.42932
▁After	-9.43083
▁commercial	-9.43087
▁delegation	-9.43289
▁pointed	-9.4329
on	-9.43343
▁negative	-9.43364
▁origin	-9.43368
▁Nevertheless	-9.4345
▁reduced	-9.4352
▁Internet	-9.43537
▁alternative	-9.4355
▁consensus	-9.4371
▁differences	-9.44042
▁union	-9.44082
▁relationship	-9.44166
▁mandate	-9.44319
▁30	-9.44633
▁flexibility	-9.44648
▁liberalisation	-9.44758
▁sources	-9.44842
▁raise	-9.44927
▁recommendations	-9.44932
▁establishment	-9.44969
▁September	-9.45238
▁added	-9.4536
▁probably	-9.45459
▁asking	-9.45463
▁morning	-9.45525
▁forget	-9.4559
▁Spain	-9.45657
1	-9.4573
▁closer	-9.45865
▁sort	-9.45878
▁Indeed	-9.4599
ive	-9.46254
▁Green	-9.46266
▁else	-9.46324
▁Some	-9.46328
le	-9.46355
▁America	-9.46551
▁wants	-9.46563
▁network	-9.46589
▁perspective	-9.46651
▁body	-9.46769
▁ground	-9.46945
▁Italian	-9.47037
ism	-9.4707
▁organisation	-9.47155
▁networks	-9.47223
▁strongly	-9.47273
▁intervention	-9.47283
▁Environment	-9.47284
▁Ukraine	-9.47511
▁applies	-9.47531
▁methods	-9.47534
▁exactly	-9.47654
▁bear	-9.47749
I	-9.47791
▁correct	-9.47897
▁rapporteurs	-9.47964
▁chance	-9.47965
▁fall	-9.48025
▁staff	-9.48088
▁laws	-9.48386
▁build	-9.4852
▁November	-9.48549
▁drawn	-9.48564
▁Ministers	-9.48566
▁seek	-9.48593
▁attempt	-9.48651
▁sanctions	-9.48699
3	-9.487
▁read	-9.48728
▁company	-9.48754
▁2000	-9.48757
▁failure	-9.4879
▁Procedure	-9.48891
▁discharge	-9.4896
▁Palestinian	-9.4909
4	-9.49223
▁says	-9.49244
▁age	-9.49496
▁dimension	-9.49503
▁UK	-9.49555
▁opening	-9.49609
▁practices	-9.49678
▁reply	-9.49739
▁laid	-9.49763
▁dealt	-9.49849
▁method	-9.49989
▁refugees	-9.5005
▁parts	-9.50122
▁person	-9.50148
▁MEPs	-9.50336
▁submitted	-9.50364
6	-9.50438
▁institution	-9.50468
▁Paper	-9.50572
▁mechanism	-9.50573
▁agencies	-9.50618
▁exercise	-9.50869
▁enormous	-9.51005
▁constructive	-9.5103
▁targets	-9.51044
▁happy	-9.5106
▁Ladies	-9.512
▁ideas	-9.51303
▁land	-9.51318
▁improvement	-9.51531
▁addressed	-9.51581
▁Why	-9.51998
▁fear	-9.52022
▁governance	-9.52046
▁informed	-9.52068
▁integrated	-9.52132
▁send	-9.52141
▁critical	-9.52181
▁fraud	-9.52237
▁By	-9.52343
▁Programme	-9.52516
▁putting	-9.52519
▁came	-9.52566
▁burden	-9.52751
ar	-9.52783
▁choice	-9.52821
▁big	-9.52828
M	-9.52938
▁obligations	-9.52939
ist	-9.52944
▁directives	-9.53046
▁simple	-9.53093
▁growing	-9.53094
▁managed	-9.53149
▁immediately	-9.53158
▁table	-9.5317
▁complex	-9.53171
▁Middle	-9.53181
▁Kingdom	-9.53348
▁definition	-9.53349
▁transparent	-9.53391
▁consultation	-9.53447
▁14	-9.53487
▁contains	-9.53576
▁unable	-9.53578
▁run	-9.53678
▁sensitive	-9.53734
ion	-9.53776
▁Even	-9.53787
▁October	-9.53827
▁organised	-9.53897
▁parliaments	-9.53912
ch	-9.54104
▁ahead	-9.54201
▁mutual	-9.54301
▁child	-9.54331
▁operation	-9.54438
▁Prime	-9.54452
▁Russian	-9.54469
▁sound	-9.54576
▁desire	-9.54595
▁mainly	-9.54621
▁mechanisms	-9.5474
▁rejected	-9.54765
▁seem	-9.54786
▁Strategy	-9.5479
▁13	-9.55097
▁Trade	-9.55131
▁administration	-9.55169
7	-9.55184
▁intention	-9.55293
u	-9.55328
▁understanding	-9.5541
▁merely	-9.5566
▁Iran	-9.55744
▁easy	-9.55788
▁leaders	-9.55805
▁evidence	-9.55959
h	-9.56158
▁resolve	-9.56203
▁Health	-9.5623
▁Charter	-9.56254
▁leading	-9.56327
▁signed	-9.56432
▁Agency	-9.56549
▁Euro	-9.56665
▁continuing	-9.56771
▁defend	-9.56776
▁Chamber	-9.56796
▁promotion	-9.5687
▁18	-9.56871
▁Turkish	-9.5697
▁persons	-9.57045
▁repeat	-9.57286
▁fish	-9.57625
▁Amsterdam	-9.57714
▁thousands	-9.57724
the	-9.57859
▁impossible	-9.57963
▁elected	-9.58106
▁disaster	-9.58278
▁renewable	-9.58357
▁guarantees	-9.58411
▁figures	-9.58523
▁lost	-9.58667
▁Amendments	-9.58829
▁substantial	-9.58839
▁adequate	-9.58889
▁told	-9.58892
▁cover	-9.58949
▁Many	-9.58971
▁resolutions	-9.59094
▁independence	-9.59117
▁worked	-9.59234
▁An	-9.59469
▁recommendation	-9.59528
▁totally	-9.59607
▁technologies	-9.59626
▁ought	-9.59627
▁speakers	-9.59807
▁degree	-9.60064
▁includes	-9.60065
▁structure	-9.60066
▁attitude	-9.6014
▁payments	-9.60213
▁intend	-9.60292
▁positions	-9.60306
▁sea	-9.60465
▁wishes	-9.60496
▁expression	-9.60621
▁extend	-9.60866
▁subsidiarity	-9.61008
▁failed	-9.61051
▁6	-9.61067
▁African	-9.61157
▁economies	-9.61163
▁related	-9.61248
▁instance	-9.6128
▁Schengen	-9.61448
▁income	-9.6152
ri	-9.61753
▁2004	-9.61833
▁grateful	-9.61888
▁secure	-9.61889
▁SMEs	-9.6202
▁traffic	-9.62094
▁territory	-9.622
▁membership	-9.62333
▁bringing	-9.62401
"	-9.62464
▁linked	-9.62502
▁Pact	-9.62514
▁affairs	-9.62519
PL	-9.62556
▁treaty	-9.62576
▁Monetary	-9.62618
▁rates	-9.6269
▁19	-9.62854
▁families	-9.62986
▁obvious	-9.6301
isation	-9.63027
▁trafficking	-9.63069
▁heart	-9.63229
▁involvement	-9.63281
▁sign	-9.63415
▁opposed	-9.63488
▁North	-9.63518
▁actual	-9.63537
▁tackle	-9.63541
▁involving	-9.63641
▁Cyprus	-9.63671
▁Structural	-9.63698
▁original	-9.63759
▁getting	-9.63925
▁Thirdly	-9.6411
▁highlight	-9.64198
▁Portugal	-9.64228
▁e	-9.64304
▁1999	-9.64454
▁office	-9.64484
te	-9.646
▁travel	-9.64701
▁debates	-9.6478
▁weapons	-9.64783
▁ready	-9.65057
▁goal	-9.65117
▁immediate	-9.65163
▁truly	-9.65191
▁plenary	-9.65218
est	-9.65226
▁credit	-9.6524
▁controls	-9.6533
▁happening	-9.65368
▁talks	-9.65401
▁official	-9.65426
ment	-9.65429
▁acts	-9.65456
D	-9.65466
▁faced	-9.65516
▁finance	-9.6554
▁drugs	-9.65558
▁lines	-9.65659
f	-9.65664
▁advantage	-9.65885
▁protecting	-9.65951
▁tourism	-9.6611
▁election	-9.6617
▁disease	-9.66217
▁enter	-9.66367
▁forced	-9.66369
▁appeal	-9.66395
▁greatest	-9.6648
P	-9.66575
▁recognised	-9.66691
▁Funds	-9.66751
▁Poland	-9.66762
▁starting	-9.66996
▁8	-9.67115
▁followed	-9.67187
▁adopting	-9.67209
▁campaign	-9.67278
▁interesting	-9.67675
▁granted	-9.67717
il	-9.67806
▁round	-9.6795
▁sides	-9.67985
▁appear	-9.68108
▁board	-9.68259
▁July	-9.68335
▁bad	-9.68359
▁diversity	-9.68412
▁conduct	-9.68468
▁27	-9.68506
▁danger	-9.68566
▁element	-9.68648
▁seeking	-9.68717
▁P	-9.68849
▁gender	-9.68857
▁bilateral	-9.68885
▁export	-9.68946
▁7	-9.68994
▁range	-9.69057
▁De	-9.69118
▁21	-9.69197
▁covered	-9.69256
▁shared	-9.6935
▁votes	-9.69422
▁minorities	-9.69445
▁mobility	-9.69501
▁Sweden	-9.69556
▁serve	-9.6956
▁pre	-9.69608
▁carefully	-9.69736
▁reject	-9.6979
▁vehicles	-9.69851
▁late	-9.69932
▁explain	-9.69945
▁suffering	-9.69949
▁ability	-9.69977
▁situations	-9.70031
▁involve	-9.70035
▁substances	-9.70095
▁comply	-9.70111
▁Public	-9.70175
▁globalisation	-9.70568
▁Nos	-9.70786
▁evaluation	-9.70807
▁standard	-9.70826
Applause	-9.70894
▁monitor	-9.70908
▁designed	-9.70946
▁competence	-9.71036
▁proposing	-9.71083
▁presence	-9.71168
▁changed	-9.71185
▁criticism	-9.71268
▁subsidies	-9.71283
▁Greek	-9.71311
▁communities	-9.7154
▁meetings	-9.71547
▁affect	-9.71581
▁thereby	-9.71617
▁detailed	-9.71708
▁16	-9.71709
▁Belarus	-9.71737
▁pollution	-9.7177
▁2009	-9.72036
▁committees	-9.72044
▁Bulgaria	-9.72127
▁While	-9.72172
▁floor	-9.72229
▁target	-9.72249
▁delay	-9.72336
▁Swedish	-9.72402
▁voice	-9.72431
▁safe	-9.72464
▁50	-9.72479
▁9	-9.72524
▁judicial	-9.72549
▁detail	-9.72807
▁lower	-9.72899
▁naturally	-9.72912
▁harmonisation	-9.7304
▁spent	-9.73098
▁series	-9.73156
▁Barroso	-9.73214
▁structures	-9.73297
▁arms	-9.73417
▁binding	-9.73461
▁Auditors	-9.73477
9	-9.7366
▁participate	-9.73689
▁emphasis	-9.73724
▁hours	-9.73792
▁consistent	-9.73861
▁Do	-9.73866
▁facilitate	-9.73894
▁approval	-9.73912
▁2005	-9.74078
▁minority	-9.74094
▁anyone	-9.74114
▁consumption	-9.7418
▁Sea	-9.74422
▁oral	-9.74555
▁car	-9.74584
▁causes	-9.74609
▁expected	-9.74689
▁Eastern	-9.7483
▁representative	-9.74872
▁credibility	-9.74917
▁improvements	-9.74998
▁taxation	-9.75008
▁initial	-9.75099
▁17	-9.75285
▁reasonable	-9.75352
▁supports	-9.75401
▁April	-9.75481
▁ACP	-9.75515
▁continues	-9.75643
de	-9.75658
▁planning	-9.75668
▁transfer	-9.75682
▁worth	-9.75731
▁Rule	-9.75766
▁otherwise	-9.75869
▁inform	-9.75914
▁employees	-9.76221
▁limits	-9.76252
▁obtain	-9.76295
et	-9.76423
▁nations	-9.76508
▁W	-9.76514
▁Energy	-9.76589
as	-9.76617
▁ones	-9.76725
▁gave	-9.76739
▁declaration	-9.76766
▁professional	-9.76876
▁amongst	-9.77223
▁Question	-9.77345
▁peoples	-9.7736
▁source	-9.77472
▁factor	-9.77519
▁Only	-9.7755
▁2020	-9.77551
▁Roma	-9.7763
▁Such	-9.77651
▁arrangements	-9.77666
▁solve	-9.77837
▁entry	-9.77861
20	-9.77862
▁recovery	-9.77866
▁obligation	-9.77866
▁maximum	-9.77892
▁citizen	-9.78142
▁rapid	-9.78142
▁religious	-9.78169
EC	-9.78248
▁session	-9.78373
▁immigrants	-9.78388
▁signal	-9.78398
▁neither	-9.78442
▁started	-9.78474
▁regulatory	-9.78507
▁lies	-9.7871
▁domestic	-9.78719
▁goals	-9.78853
▁compensation	-9.78904
▁manage	-9.78959
▁PPE	-9.7906
▁politicians	-9.79132
T	-9.7914
▁terrorist	-9.79174
▁Those	-9.79243
▁easier	-9.79336
▁modern	-9.79347
▁factors	-9.79354
F	-9.7942
▁path	-9.79466
▁generally	-9.79475
▁whilst	-9.79583
▁encouraging	-9.79677
k	-9.8014
▁rail	-9.80147
▁Vice	-9.8025
▁fail	-9.8037
▁grounds	-9.80399
▁Agriculture	-9.80487
▁politics	-9.80545
▁attacks	-9.80584
▁Socialist	-9.8059
▁Czech	-9.80738
▁freedoms	-9.80931
▁Yet	-9.80959
▁From	-9.8099
▁continent	-9.81025
▁banks	-9.81152
▁permanent	-9.81282
▁scale	-9.81289
▁post	-9.81437
▁moving	-9.81465
▁speaker	-9.8157
ul	-9.81647
▁Legal	-9.81779
▁delighted	-9.81785
based	-9.81831
▁month	-9.81841
▁appears	-9.81857
▁contributions	-9.81935
▁flexible	-9.81969
▁Research	-9.82001
▁debt	-9.8207
▁constitutional	-9.82103
▁Western	-9.82163
▁languages	-9.82187
▁welfare	-9.82288
▁imposed	-9.82371
▁respected	-9.82526
lo	-9.82786
▁General	-9.82963
PT	-9.82964
▁Market	-9.83024
▁endorse	-9.83171
▁compliance	-9.83194
▁equally	-9.83203
▁approve	-9.83327
▁restrictions	-9.83438
▁appropriations	-9.8344
▁partner	-9.83482
▁migration	-9.83506
▁2003	-9.83548
▁inclusion	-9.83668
▁construction	-9.83669
▁sent	-9.83676
▁capable	-9.83734
▁requirement	-9.83763
▁2002	-9.8386
▁man	-9.84025
▁reflect	-9.84067
▁evening	-9.84108
President	-9.84111
▁century	-9.84221
▁link	-9.84369
▁forthcoming	-9.84446
▁firm	-9.84452
▁conflicts	-9.84574
▁awareness	-9.84646
▁proposes	-9.84736
▁speed	-9.84756
▁experts	-9.84797
▁separate	-9.84798
▁guaranteed	-9.84871
▁Copenhagen	-9.84903
▁crimes	-9.84966
▁spending	-9.84987
▁negotiating	-9.85034
▁Strasbourg	-9.85035
▁impose	-9.85081
▁visa	-9.85136
▁interested	-9.85205
H	-9.85211
IT	-9.85217
▁Stability	-9.85232
▁learn	-9.85233
▁NATO	-9.85365
▁placed	-9.85375
▁T	-9.85433
▁helping	-9.85441
▁operations	-9.85515
▁sexual	-9.85597
▁M	-9.85606
▁tobacco	-9.85659
▁payment	-9.85685
▁Afghanistan	-9.85724
▁Netherlands	-9.85724
▁personally	-9.85803
▁fighting	-9.86023
▁i	-9.86025
▁lose	-9.86027
▁numerous	-9.86154
▁referendum	-9.86162
li	-9.86189
▁resolved	-9.86322
▁investments	-9.86418
▁diseases	-9.86453
▁truth	-9.86461
▁labelling	-9.86659
▁d	-9.86679
ary	-9.86732
▁Luxembourg	-9.86752
▁safeguard	-9.86762
▁likely	-9.86825
▁customs	-9.87077
▁allowing	-9.87107
▁mass	-9.87123
▁trading	-9.87223
▁glad	-9.873
▁Action	-9.87344
▁realise	-9.87494
▁traditional	-9.87516
▁tasks	-9.87577
us	-9.87621
▁continued	-9.87645
▁demonstrate	-9.87693
▁defined	-9.87705
▁existence	-9.87732
▁peaceful	-9.87751
at	-9.8777
▁voluntary	-9.87894
▁purposes	-9.87916
▁Europeans	-9.87943
▁worse	-9.88076
▁examine	-9.88151
▁Agenda	-9.88162
ta	-9.88304
▁letter	-9.8837
▁base	-9.88469
▁pension	-9.8848
▁demonstrated	-9.88518
▁option	-9.88531
▁distribution	-9.88602
▁remarks	-9.88833
▁Balkans	-9.88955
▁New	-9.88981
▁functioning	-9.89053
▁attack	-9.89079
el	-9.89107
▁effectiveness	-9.89165
▁material	-9.89165
▁via	-9.8921
▁scheme	-9.89248
▁associated	-9.89278
▁II	-9.89286
▁ECU	-9.89289
▁opinions	-9.89297
▁assure	-9.89303
ro	-9.89379
▁mission	-9.89429
▁disasters	-9.89503
▁occasions	-9.89584
is	-9.89677
▁exists	-9.89876
▁According	-9.89889
▁Baltic	-9.89935
▁vision	-9.89936
▁Another	-9.8997
▁strict	-9.90026
▁maritime	-9.90039
▁operate	-9.90098
▁space	-9.90142
▁counter	-9.90188
▁average	-9.90211
▁written	-9.90285
▁Framework	-9.90349
▁Budgets	-9.90365
▁tried	-9.90469
▁phase	-9.90714
▁protected	-9.9073
▁operators	-9.90744
▁wonder	-9.90754
▁ultimately	-9.90782
▁revision	-9.90799
▁wide	-9.90927
▁Austria	-9.9094
▁Ombudsman	-9.90973
▁Lastly	-9.90981
▁legitimate	-9.91022
▁Not	-9.91075
▁India	-9.91077
▁contained	-9.9111
▁Commissioners	-9.91287
▁suggest	-9.91297
▁cooperate	-9.91375
▁entitled	-9.91392
▁USA	-9.91397
co	-9.91412
▁Portuguese	-9.91461
▁ethnic	-9.91715
▁primarily	-9.91776
▁concluded	-9.91797
▁officials	-9.91854
▁overcome	-9.91916
▁succeed	-9.92009
▁corruption	-9.9206
▁appreciate	-9.92076
▁High	-9.92095
la	-9.92182
▁justified	-9.92214
ent	-9.92265
▁brief	-9.92389
▁decisive	-9.92567
▁difference	-9.92611
▁electronic	-9.92762
▁individuals	-9.92786
▁millions	-9.92965
▁dignity	-9.9301
▁contact	-9.93075
▁substance	-9.93217
▁visit	-9.93262
▁technological	-9.93442
▁lay	-9.93598
▁passed	-9.93871
▁Despite	-9.93937
▁Treaties	-9.93937
▁statistics	-9.9405
▁Chinese	-9.94188
▁played	-9.9419
▁extended	-9.94303
▁Dutch	-9.94331
▁allocated	-9.94344
▁prepare	-9.94352
▁violations	-9.94427
▁amounts	-9.94436
▁involves	-9.94437
▁penalty	-9.94512
▁Organisation	-9.94548
▁top	-9.94609
▁clause	-9.94661
▁collective	-9.9471
▁pursue	-9.94749
▁firmly	-9.9486
ra	-9.94869
▁constitution	-9.9488
▁temporary	-9.94946
▁nevertheless	-9.95162
▁loss	-9.9522
▁normal	-9.9525
ling	-9.95285
▁emergency	-9.95416
▁February	-9.95416
▁whatever	-9.9545
▁imports	-9.95577
▁court	-9.95657
▁treated	-9.9569
▁Given	-9.9578
ES	-9.95814
▁impression	-9.95817
▁passengers	-9.95918
▁got	-9.96019
▁ministers	-9.96117
▁Financial	-9.96218
▁vulnerable	-9.96255
▁unless	-9.96263
▁CAP	-9.96372
▁Perhaps	-9.96402
▁inter	-9.96426
▁farming	-9.96456
▁planned	-9.96481
▁please	-9.96649
v	-9.96856
▁industries	-9.9688
x	-9.96942
▁centre	-9.9697
▁proceed	-9.96997
▁requested	-9.97021
mo	-9.97064
▁obstacles	-9.97076
▁latter	-9.97102
and	-9.97161
▁abuse	-9.97199
▁secondly	-9.97205
▁extension	-9.9725
▁excessive	-9.97307
▁hands	-9.97318
▁Assembly	-9.97324
▁confirm	-9.97471
▁taxes	-9.97496
▁somewhat	-9.97587
▁Head	-9.9762
▁1998	-9.97705
▁100	-9.97741
▁fuel	-9.97765
▁Here	-9.97946
▁Women	-9.97958
▁O	-9.97996
▁prove	-9.98185
O	-9.98306
▁gone	-9.98324
▁agency	-9.98479
▁preparing	-9.98516
▁2001	-9.98519
▁offers	-9.98542
▁happens	-9.98594
▁compared	-9.98719
▁fulfil	-9.98729
▁spoke	-9.98872
▁exclusion	-9.98929
ne	-9.98947
▁gain	-9.99028
▁examples	-9.99091
▁property	-9.99128
▁Israeli	-9.99154
▁CO	-9.99237
▁highest	-9.99272
▁seven	-9.99334
▁preventing	-9.99425
▁undoubtedly	-9.9946
▁Prodi	-9.99534
▁considering	-9.99619
▁occasion	-9.99622
▁R	-9.99702
▁Fundamental	-9.99723
▁insurance	-9.99761
▁pass	-9.99821
▁spoken	-9.99857
▁behaviour	-9.99913
▁operational	-10.0001
▁record	-10.0006
▁drawing	-10.0007
▁constantly	-10.0018
▁Transport	-10.0026
▁urgently	-10.0029
▁knows	-10.0035
▁NGOs	-10.0043
▁trans	-10.0044
▁fishermen	-10.0064
w	-10.007
▁pro	-10.007
▁Because	-10.0083
▁fiscal	-10.011
un	-10.0112
▁latest	-10.0115
▁applying	-10.0119
▁pillar	-10.0128
▁processes	-10.0131
▁duties	-10.0133
▁relates	-10.0136
▁codecision	-10.0137
▁quotas	-10.0148
▁2007	-10.0149
▁expectations	-10.0158
▁introducing	-10.0172
▁Alliance	-10.0179
▁stronger	-10.0181
▁determined	-10.0184
▁details	-10.0184
▁tool	-10.0191
▁ratification	-10.0191
▁courage	-10.0194
0	-10.0196
▁keeping	-10.0198
▁described	-10.0201
▁Re	-10.021
▁announced	-10.0212
▁dis	-10.0215
▁D	-10.022
▁sensible	-10.0226
▁Croatia	-10.023
▁Then	-10.0233
▁prosperity	-10.0234
▁precise	-10.0244
▁function	-10.0245
▁sub	-10.0251
▁allows	-10.0257
▁association	-10.0264
▁welcomed	-10.0265
▁Report	-10.0265
▁insist	-10.0266
▁supervision	-10.0269
▁proceedings	-10.0273
na	-10.0291
▁Asia	-10.0292
▁historic	-10.0293
E	-10.0309
sh	-10.031
▁stocks	-10.0326
▁works	-10.0331
▁operating	-10.0332
▁strategies	-10.0335
ma	-10.0343
▁choose	-10.0343
▁strengthened	-10.0353
▁studies	-10.0367
▁confirmed	-10.0368
▁arguments	-10.0374
▁40	-10.0376
▁exploitation	-10.0387
ised	-10.0392
▁represented	-10.04
▁clarify	-10.041
▁convergence	-10.0411
▁minutes	-10.0419
▁coordinated	-10.0422
▁barriers	-10.0425
▁Fisheries	-10.0426
rs	-10.0431
▁conciliation	-10.0434
▁submit	-10.045
▁noted	-10.0457
▁deliver	-10.0459
▁kept	-10.0462
▁types	-10.0471
ia	-10.0471
▁F	-10.0471
▁fine	-10.0474
▁Consumer	-10.0483
NL	-10.0505
▁briefly	-10.0512
terinstitutional	-10.0528
▁intends	-10.0533
▁debating	-10.0538
▁largest	-10.0548
▁largely	-10.0563
▁sovereignty	-10.0587
▁2006	-10.0598
z	-10.0603
▁published	-10.0606
▁24	-10.061
▁equipment	-10.0611
▁coherent	-10.0621
▁realistic	-10.0623
▁accounts	-10.0625
▁leadership	-10.0627
im	-10.0641
▁Protection	-10.0647
▁condition	-10.0674
▁electricity	-10.0676
year	-10.0681
▁materials	-10.0684
▁condemn	-10.0688
▁nation	-10.0703
▁assess	-10.072
▁innovative	-10.0725
▁politically	-10.0735
▁maintaining	-10.0735
▁dependent	-10.0746
▁Budget	-10.0747
▁Employment	-10.0749
▁near	-10.0752
▁undertaken	-10.0755
▁contracts	-10.0756
▁willing	-10.076
▁paper	-10.0761
ated	-10.0767
▁urgency	-10.0786
▁1997	-10.0789
▁room	-10.0791
▁suffer	-10.0793
▁perfectly	-10.0793
▁united	-10.0812
▁transition	-10.0813
▁unfair	-10.0814
▁honour	-10.0814
▁Constitutional	-10.0817
▁Instead	-10.0819
▁enjoy	-10.0819
▁fields	-10.0831
ry	-10.0839
▁advance	-10.0846
▁offered	-10.0846
▁restructuring	-10.0848
▁finding	-10.0852
ise	-10.0854
General	-10.0857
▁felt	-10.0861
▁amending	-10.0863
age	-10.0875
▁cars	-10.0876
▁Serbia	-10.0883
▁identity	-10.0885
ci	-10.0886
▁ongoing	-10.0886
▁c	-10.0886
▁regular	-10.0887
▁shadow	-10.089
▁follows	-10.0898
▁patients	-10.0903
▁wine	-10.0904
▁define	-10.0906
▁careful	-10.0906
▁absence	-10.0915
▁argument	-10.0923
▁significantly	-10.0934
▁invest	-10.0943
▁school	-10.0949
▁test	-10.0951
▁concentrate	-10.0951
▁universal	-10.0958
▁determination	-10.0963
▁stable	-10.097
ty	-10.0974
▁territorial	-10.0978
▁wait	-10.0979
▁waiting	-10.0989
▁formal	-10.099
▁acknowledge	-10.1023
▁accidents	-10.1056
▁changing	-10.1058
▁proved	-10.1059
▁More	-10.1075
▁qualified	-10.1079
▁legally	-10.1087
▁Dur	-10.1088
▁parliament	-10.1093
▁Can	-10.1102
▁medical	-10.1104
▁brings	-10.111
▁contain	-10.111
▁difficulty	-10.1111
▁understood	-10.1125
▁answers	-10.1136
▁Consequently	-10.1151
ve	-10.1158
out	-10.1163
▁release	-10.1176
ce	-10.1187
▁highlighted	-10.119
▁genuinely	-10.1193
▁figure	-10.121
▁amended	-10.121
▁claim	-10.121
▁22	-10.1222
▁learning	-10.1227
G	-10.1242
▁places	-10.1244
▁vessels	-10.1252
▁holding	-10.126
▁disposal	-10.1263
▁Hungarian	-10.1266
▁Georgia	-10.127
▁significance	-10.1275
▁neighbours	-10.1279
▁23	-10.128
▁valuable	-10.1284
▁listen	-10.129
▁deficit	-10.1296
▁VAT	-10.1297
ance	-10.1311
▁inadequate	-10.1314
▁sport	-10.1325
ally	-10.1325
▁Control	-10.134
▁Protocol	-10.134
▁satisfactory	-10.134
▁referring	-10.1345
▁H	-10.1354
▁extra	-10.1369
▁Representative	-10.1375
▁Cooperation	-10.1375
▁driving	-10.1389
▁Austrian	-10.1401
▁apart	-10.1422
▁Last	-10.1428
▁negotiation	-10.1433
▁seeing	-10.1439
▁Thursday	-10.1441
▁primary	-10.1441
ntergovernmental	-10.1457
▁resulting	-10.1459
▁remove	-10.1462
▁sustainability	-10.1463
▁2008	-10.1471
▁Internal	-10.1472
▁destruction	-10.1476
▁exports	-10.1482
▁head	-10.1496
ol	-10.1497
▁absolute	-10.1497
▁milk	-10.1498
▁Latin	-10.1499
▁Finland	-10.1503
▁Food	-10.1507
▁preparation	-10.1521
▁assume	-10.1543
▁daily	-10.1547
man	-10.1594
▁suggested	-10.1598
▁drug	-10.1603
▁television	-10.1605
▁saw	-10.1606
▁stake	-10.1615
▁constitute	-10.1624
▁Before	-10.1627
▁grant	-10.1631
▁neighbouring	-10.1632
▁moral	-10.1639
ir	-10.165
▁someone	-10.1653
▁actively	-10.1664
▁medicines	-10.1669
▁users	-10.167
▁meat	-10.1672
▁Northern	-10.1681
▁facts	-10.169
▁code	-10.1695
▁determine	-10.1699
▁built	-10.1699
▁playing	-10.1707
▁Greens	-10.1719
é	-10.1722
▁leads	-10.1723
▁version	-10.173
▁Once	-10.1734
▁1996	-10.1751
▁Britain	-10.1758
▁Common	-10.1772
▁depend	-10.1785
▁urban	-10.1785
▁elsewhere	-10.1785
▁speeches	-10.1808
▁White	-10.1808
▁friends	-10.1809
▁multilateral	-10.1812
▁GDP	-10.1813
▁timetable	-10.1819
▁wider	-10.1819
▁investigation	-10.1821
ut	-10.183
▁deep	-10.183
▁Safety	-10.1831
▁plants	-10.1842
▁opposite	-10.1845
▁identify	-10.1846
▁bit	-10.1854
▁spread	-10.1855
▁Are	-10.1857
▁indicated	-10.1867
▁satisfied	-10.1867
▁maintained	-10.1874
Christian	-10.1883
▁double	-10.1887
ti	-10.1888
▁sufficiently	-10.189
▁previously	-10.1891
▁meant	-10.1894
▁zone	-10.1894
▁requests	-10.1899
▁etc	-10.1902
▁feed	-10.1903
▁plant	-10.1903
▁possibly	-10.1909
▁Regional	-10.1914
▁greatly	-10.1915
▁External	-10.1918
▁obliged	-10.1919
▁massive	-10.1928
▁Without	-10.1939
N	-10.1941
▁van	-10.1946
▁check	-10.1953
▁transitional	-10.1954
▁budgets	-10.1982
▁waters	-10.1985
▁proportion	-10.1989
▁moreover	-10.1992
▁tragic	-10.1992
▁stands	-10.1995
▁strength	-10.2005
U	-10.2024
▁background	-10.2025
▁thanking	-10.2026
▁V	-10.2034
▁West	-10.2038
▁links	-10.204
▁oppose	-10.2043
▁dynamic	-10.2043
▁running	-10.2058
▁1995	-10.2061
▁competent	-10.2062
▁compulsory	-10.2063
▁topic	-10.2065
▁aviation	-10.2067
▁prisoners	-10.2067
▁500	-10.2069
▁Thus	-10.2071
▁identified	-10.2081
▁t	-10.209
▁Europol	-10.2104
▁partly	-10.2107
▁becomes	-10.2114
▁suffered	-10.2114
▁interpretation	-10.2115
▁enforcement	-10.2119
▁himself	-10.2123
▁considers	-10.2126
▁rich	-10.2135
▁Kyoto	-10.2137
▁afternoon	-10.2142
▁launched	-10.2145
▁Liberal	-10.2148
▁Ma	-10.2153
▁adapt	-10.2155
▁Belgian	-10.2156
▁BSE	-10.2159
▁chosen	-10.2161
▁spend	-10.2163
▁recall	-10.2174
▁affects	-10.2177
▁deserves	-10.218
▁hearing	-10.2181
▁possibilities	-10.2189
ting	-10.2195
▁reconstruction	-10.2199
▁front	-10.2205
▁completed	-10.2207
▁societies	-10.2213
▁Having	-10.2218
▁attempts	-10.222
▁conducted	-10.2222
▁carrying	-10.2224
▁diplomatic	-10.2227
▁2010	-10.2229
▁Pakistan	-10.223
ad	-10.2243
▁debated	-10.2244
▁implications	-10.2247
▁uniform	-10.2259
vo	-10.2275
▁beings	-10.2275
▁helped	-10.2275
▁went	-10.2283
▁species	-10.2284
▁stock	-10.2287
▁ports	-10.2306
▁options	-10.2309
▁guaranteeing	-10.2313
▁eight	-10.2319
▁f	-10.232
free	-10.232
less	-10.232
▁complicated	-10.2323
▁Nice	-10.2332
▁gap	-10.2335
▁National	-10.2337
▁issued	-10.2343
▁prior	-10.235
▁spite	-10.2361
▁schemes	-10.2361
▁K	-10.2364
▁sorry	-10.2369
▁poorest	-10.2372
▁extreme	-10.238
▁size	-10.2381
▁enhance	-10.2388
▁facilities	-10.239
▁surely	-10.2402
▁patent	-10.2406
▁Danish	-10.2409
▁Bosnia	-10.2412
▁intellectual	-10.2414
▁ratified	-10.2414
▁Hungary	-10.2419
▁assist	-10.2419
ous	-10.242
▁definitely	-10.2421
▁tragedy	-10.2424
▁proof	-10.2425
▁replace	-10.2437
02	-10.2444
▁believes	-10.2444
ni	-10.2453
▁seeks	-10.2457
▁Secretary	-10.2458
▁whereby	-10.2472
▁southern	-10.2477
▁heavy	-10.2492
▁successfully	-10.2493
▁mistake	-10.2494
▁worldwide	-10.2497
COM	-10.2498
▁openness	-10.2512
R	-10.2519
▁secret	-10.2521
▁generation	-10.2545
▁sugar	-10.2546
▁constant	-10.255
▁addressing	-10.2556
▁Subject	-10.2561
ating	-10.2566
▁green	-10.2581
▁EC	-10.2589
▁purely	-10.2597
ising	-10.2604
▁advertising	-10.2605
▁cities	-10.261
▁prospects	-10.2615
▁intentions	-10.2617
▁Barcelona	-10.2625
▁centres	-10.2626
ha	-10.2628
▁wealth	-10.2632
scale	-10.2636
▁exception	-10.2637
▁relative	-10.2647
▁Will	-10.2669
▁Home	-10.2675
▁extensive	-10.2684
▁solely	-10.2687
ant	-10.2689
▁Partnership	-10.2689
ate	-10.269
▁sets	-10.2692
▁quote	-10.2694
▁harmful	-10.2699
▁Belgium	-10.2704
po	-10.2709
▁unanimously	-10.2713
▁Polish	-10.2714
▁Socialists	-10.2715
ca	-10.2718
▁worst	-10.2729
▁Time	-10.2743
▁worrying	-10.2743
▁reiterate	-10.2744
▁players	-10.2759
▁demanding	-10.2766
▁producing	-10.2771
▁Where	-10.2774
EL	-10.2775
▁opened	-10.2783
▁accident	-10.2789
▁foremost	-10.2789
▁skills	-10.2798
▁phenomenon	-10.2799
ors	-10.2809
▁dispute	-10.2811
▁Korea	-10.2815
▁stressed	-10.2817
▁governing	-10.2825
▁Does	-10.2832
▁essentially	-10.2833
▁taxpayers	-10.2833
▁Japan	-10.284
▁hundreds	-10.284
related	-10.2841
▁extending	-10.2848
▁...	-10.2848
▁healthy	-10.285
▁Nor	-10.2857
▁profits	-10.286
▁acting	-10.2862
▁easily	-10.2875
▁numbers	-10.2899
▁correctly	-10.2908
economic	-10.2908
▁schools	-10.2915
▁heritage	-10.2921
▁pensions	-10.2922
ian	-10.2925
▁Both	-10.2926
▁achievement	-10.2929
▁depends	-10.2933
00	-10.2943
RO	-10.2943
▁proud	-10.2947
▁rapidly	-10.295
▁Growth	-10.2951
▁Under	-10.2956
tergovernmental	-10.2967
▁bound	-10.2973
▁tools	-10.2973
▁sum	-10.2978
▁advice	-10.2987
▁considerably	-10.2989
▁considerations	-10.2997
▁crises	-10.2998
▁b	-10.2998
▁Left	-10.3003
5-	-10.3018
▁texts	-10.3027
▁31	-10.3032
▁savings	-10.3035
▁enabling	-10.3039
▁feeling	-10.3041
ies	-10.3041
▁launch	-10.3044
vi	-10.3046
▁thorough	-10.3049
▁threats	-10.3063
▁charges	-10.3064
▁environmentally	-10.3074
▁26	-10.308
▁decades	-10.3085
▁slow	-10.3093
▁promised	-10.3094
▁chairman	-10.3096
▁reliable	-10.3116
▁geographical	-10.3116
▁remaining	-10.313
▁break	-10.3135
▁Cuba	-10.3138
▁granting	-10.3146
▁experienced	-10.3146
▁deals	-10.3154
▁manufacturers	-10.3155
▁core	-10.3162
▁profit	-10.3168
▁clarity	-10.3168
one	-10.3172
▁focused	-10.3185
▁favourable	-10.3186
▁bureaucracy	-10.3195
▁encouraged	-10.3197
▁performance	-10.32
▁claims	-10.3207
▁cuts	-10.3208
▁regrettable	-10.3211
L	-10.3212
ge	-10.3213
▁willingness	-10.3222
▁refers	-10.3223
ter	-10.3231
▁reaction	-10.3237
▁powerful	-10.3238
▁heading	-10.3246
▁Plan	-10.3257
▁ECB	-10.3259
▁paying	-10.3261
▁declared	-10.3262
▁suitable	-10.3263
session	-10.3266
▁advantages	-10.3269
▁emphasised	-10.3281
▁multi	-10.3284
▁imagine	-10.329
▁contributed	-10.3295
▁admit	-10.3305
▁applicable	-10.3305
▁entered	-10.3316
▁reflected	-10.3319
▁certainty	-10.3321
▁modified	-10.3332
▁wording	-10.3335
▁carbon	-10.3339
▁passenger	-10.3359
▁legitimacy	-10.3364
▁Just	-10.3374
▁article	-10.3381
▁intervene	-10.3385
▁succeeded	-10.3387
▁historical	-10.3394
▁biggest	-10.3396
▁undertakings	-10.3397
▁supposed	-10.3402
▁affecting	-10.3418
▁increases	-10.3421
▁engage	-10.3421
▁unnecessary	-10.3422
▁protocol	-10.3435
▁convention	-10.3442
▁arise	-10.3449
me	-10.3452
▁island	-10.3456
▁contract	-10.3456
▁violation	-10.3456
▁eastern	-10.3461
▁save	-10.3471
▁Arab	-10.3477
▁port	-10.348
ities	-10.3483
▁Christian	-10.3491
▁Denmark	-10.3514
▁Rur	-10.3516
▁communications	-10.3519
▁negotiated	-10.353
▁doubts	-10.3531
ful	-10.3534
▁whereas	-10.3536
▁summer	-10.3537
▁competences	-10.3539
▁beef	-10.354
Parliament	-10.355
▁restore	-10.3574
▁commit	-10.3583
▁vast	-10.3585
▁constitutes	-10.3588
▁removed	-10.3591
▁simplification	-10.3595
▁20%	-10.3596
▁te	-10.3619
▁regarded	-10.3629
▁fruit	-10.3634
▁retain	-10.3641
▁leader	-10.3645
ac	-10.3646
▁utmost	-10.365
▁reaching	-10.3651
▁consequence	-10.3653
▁ships	-10.3654
▁hit	-10.3662
▁greenhouse	-10.3678
▁Parliamentary	-10.3678
▁sake	-10.3683
▁healthcare	-10.3683
▁Slovakia	-10.3688
▁bank	-10.3692
▁deeply	-10.3695
▁reservations	-10.3696
▁sought	-10.3701
▁Culture	-10.3711
▁supplementary	-10.3716
▁incorporated	-10.3719
▁afraid	-10.3727
▁regulate	-10.3728
ine	-10.3731
▁Authority	-10.3738
▁29	-10.3745
▁explanation	-10.3748
▁Civil	-10.3755
▁courts	-10.3763
▁cancer	-10.3775
▁airlines	-10.3777
▁boost	-10.3804
▁Maastricht	-10.3805
▁firms	-10.3806
▁citizenship	-10.3806
▁news	-10.381
▁everybody	-10.381
▁negotiate	-10.3811
▁buy	-10.3826
▁eye	-10.3827
ll	-10.3828
▁science	-10.3833
▁applicant	-10.3837
▁fairly	-10.3843
▁weak	-10.3855
▁200	-10.3859
▁noon	-10.386
▁south	-10.3861
▁battle	-10.3872
▁Joint	-10.3877
▁presenting	-10.3877
▁prospect	-10.3879
▁deserve	-10.3889
▁obtained	-10.3898
▁28	-10.39
con	-10.3905
▁piece	-10.3912
▁religion	-10.3922
▁smaller	-10.3934
▁racism	-10.3939
▁targeted	-10.3944
▁aside	-10.3956
▁eliminate	-10.3957
▁raising	-10.3964
▁respects	-10.3964
wide	-10.3966
▁Citizens	-10.3966
▁Berlin	-10.3967
▁leaving	-10.3973
▁charge	-10.3992
▁excluded	-10.3993
▁applications	-10.4002
▁clean	-10.4016
▁She	-10.4028
▁preserve	-10.403
▁tests	-10.4034
▁Burma	-10.4035
am	-10.4039
▁liberal	-10.4052
▁Follow	-10.4058
▁Association	-10.4064
▁Over	-10.407
▁ordinary	-10.4081
▁60	-10.4084
▁employers	-10.409
▁treaties	-10.4093
▁struggle	-10.411
▁Tourism	-10.4116
▁meaning	-10.4116
▁electoral	-10.4121
▁mark	-10.4124
em	-10.4127
▁incentives	-10.4129
▁stay	-10.4148
▁fleet	-10.4165
▁disabled	-10.4167
▁declarations	-10.4168
▁Industry	-10.4173
▁credible	-10.4173
▁jointly	-10.4177
▁revised	-10.4181
▁armed	-10.4182
ring	-10.4183
▁necessarily	-10.4185
▁Yugoslavia	-10.4186
▁settlement	-10.4199
▁combined	-10.4205
▁nationals	-10.4209
▁harm	-10.422
he	-10.422
▁pact	-10.422
▁bureaucratic	-10.422
▁suggestions	-10.4222
▁terrible	-10.4231
▁outstanding	-10.4241
▁amend	-10.4246
▁surprised	-10.4246
▁author	-10.4247
▁pleasure	-10.4254
▁eyes	-10.4256
▁familiar	-10.4266
▁yes	-10.4277
▁shortcomings	-10.4285
▁hopes	-10.4287
▁tonnes	-10.4296
▁representation	-10.4313
▁import	-10.4314
▁justify	-10.4314
▁examined	-10.4322
▁Well	-10.4328
▁declare	-10.4331
ke	-10.4333
▁complaints	-10.4334
▁showing	-10.4336
▁shape	-10.4337
▁repeatedly	-10.4341
▁register	-10.4343
▁radical	-10.4348
▁drafting	-10.4369
▁ethical	-10.4377
▁importantly	-10.438
▁reflects	-10.4385
▁afford	-10.4386
▁undertake	-10.4395
▁marketing	-10.4397
▁nearly	-10.4397
▁prefer	-10.44
▁weight	-10.4401
▁trend	-10.4404
▁exceptional	-10.4405
▁grow	-10.4408
▁Bureau	-10.4413
▁underline	-10.4416
▁expressing	-10.4439
nt	-10.4449
per	-10.4452
▁stance	-10.446
▁buildings	-10.4461
▁arrest	-10.4474
▁prison	-10.4479
▁broader	-10.4485
▁unemployed	-10.4509
▁suspended	-10.4511
▁turned	-10.4516
▁bearing	-10.4517
ot	-10.4518
▁transactions	-10.4519
▁foundations	-10.4525
▁educational	-10.4535
lecommunications	-10.4551
▁Van	-10.4559
▁honest	-10.4566
▁belong	-10.4571
▁belief	-10.4573
▁Macedonia	-10.4574
▁hardly	-10.4575
▁widespread	-10.458
▁Act	-10.4585
▁picture	-10.4585
▁percentage	-10.4586
▁subjects	-10.4595
▁economically	-10.4598
▁preparations	-10.4603
um	-10.4604
▁alcohol	-10.4609
▁fresh	-10.461
▁undermine	-10.4611
▁students	-10.4613
▁ex	-10.4624
▁fewer	-10.4627
▁biodiversity	-10.4628
▁resulted	-10.4631
▁creates	-10.4633
▁deadline	-10.4634
▁below	-10.4636
▁checks	-10.4646
▁PSE	-10.4652
▁forest	-10.4664
▁quota	-10.4666
▁ambition	-10.4671
▁red	-10.4681
▁warmly	-10.4687
▁liability	-10.4689
▁penalties	-10.4701
▁inflation	-10.4707
▁airports	-10.4707
▁allocation	-10.4707
▁motor	-10.4713
▁relate	-10.4715
▁unity	-10.4724
▁War	-10.4728
▁disagree	-10.4731
▁Free	-10.4739
▁restrict	-10.474
▁repeated	-10.474
▁tackling	-10.4744
▁candidates	-10.4746
▁physical	-10.475
▁expense	-10.4757
▁none	-10.4767
▁treat	-10.4774
(	-10.4778
▁abolition	-10.478
▁night	-10.478
▁coordinate	-10.4782
▁count	-10.4797
▁unfortunate	-10.4806
▁Yes	-10.4806
▁losses	-10.4807
▁fire	-10.4811
▁delays	-10.4813
▁category	-10.4817
▁transatlantic	-10.4823
do	-10.483
SV	-10.4832
▁restricted	-10.485
▁withdraw	-10.4853
▁faith	-10.4854
▁invite	-10.4862
V	-10.4866
▁enhanced	-10.4867
▁unique	-10.4873
tic	-10.4877
▁became	-10.4879
▁satisfaction	-10.4879
▁minute	-10.4887
▁civilian	-10.4889
▁Islamic	-10.4893
▁lessons	-10.4898
▁city	-10.4899
▁widely	-10.4901
▁insufficient	-10.4901
led	-10.4904
▁track	-10.4906
▁falls	-10.4909
om	-10.4916
ex	-10.4917
▁door	-10.4918
▁Geneva	-10.4922
▁condemned	-10.4929
▁freely	-10.493
▁youth	-10.4938
▁qualifications	-10.4939
▁Albania	-10.4945
▁occurred	-10.4948
▁Clearly	-10.4948
▁fast	-10.4957
▁presentation	-10.4959
▁Morocco	-10.496
▁explained	-10.4966
▁English	-10.4966
▁army	-10.4967
▁m	-10.4969
▁expensive	-10.4972
▁lie	-10.4974
▁regulated	-10.4978
▁digital	-10.4979
▁aircraft	-10.4979
▁informal	-10.498
▁drafted	-10.4983
▁welcomes	-10.4988
▁EMU	-10.4991
▁uncertainty	-10.4991
▁twenty	-10.4997
▁gradually	-10.5002
▁indicate	-10.5014
▁Gaza	-10.5016
▁Palestinians	-10.5019
▁distinction	-10.503
▁team	-10.5032
▁Lithuania	-10.5036
▁flow	-10.5038
▁lasting	-10.5043
▁ignore	-10.5046
▁larger	-10.5051
▁L	-10.5056
id	-10.5061
▁recommend	-10.5061
▁kinds	-10.5064
▁demographic	-10.5073
▁offering	-10.5079
▁nonetheless	-10.5079
▁processing	-10.508
▁unanimous	-10.508
▁reserve	-10.5084
▁causing	-10.5092
▁Rome	-10.5092
▁receiving	-10.5098
land	-10.5103
▁outset	-10.5108
▁railway	-10.5109
▁sovereign	-10.5117
▁periods	-10.5125
▁suggestion	-10.5129
▁turning	-10.5135
▁regardless	-10.5136
ho	-10.5138
▁collaboration	-10.5149
▁procurement	-10.5149
▁permit	-10.5166
▁indicators	-10.5174
▁acquis	-10.5175
▁raw	-10.5175
all	-10.5177
▁Co	-10.5179
▁Obviously	-10.5181
time	-10.5185
▁sphere	-10.5185
▁protest	-10.5191
▁terrorists	-10.5203
▁promises	-10.5207
▁hence	-10.5208
▁reflection	-10.5214
▁listened	-10.5219
▁ecological	-10.522
▁parents	-10.5222
▁demonstrates	-10.5228
▁warning	-10.5231
▁trial	-10.5232
▁covers	-10.524
▁elderly	-10.5245
▁extraordinary	-10.5252
▁Investment	-10.5258
▁financed	-10.5258
▁began	-10.5258
▁chain	-10.5263
▁minister	-10.5263
▁undertaking	-10.5264
▁blame	-10.5266
▁observed	-10.5282
▁comparison	-10.5284
▁engaged	-10.5303
▁journalists	-10.5313
▁severe	-10.5324
▁basically	-10.5325
▁strike	-10.5328
▁Most	-10.533
j	-10.533
▁promise	-10.5343
▁deaths	-10.5343
▁tribute	-10.5348
▁generations	-10.5349
▁Office	-10.5351
▁valid	-10.5354
▁noise	-10.5354
▁push	-10.5367
▁motions	-10.5368
▁shares	-10.537
▁killed	-10.5372
▁transit	-10.5382
▁reinforce	-10.5387
▁couple	-10.5402
▁Zimbabwe	-10.5406
▁necessity	-10.5407
▁finances	-10.5408
▁section	-10.5413
▁congratulations	-10.5427
ver	-10.543
▁Nonetheless	-10.5433
▁spring	-10.5433
▁territories	-10.5446
▁organise	-10.5474
▁abstained	-10.5484
▁torture	-10.5487
▁prevented	-10.5488
▁Iraqi	-10.5509
▁promoted	-10.5528
▁collection	-10.5533
▁pilot	-10.5539
▁supplies	-10.5539
▁viable	-10.5539
▁parallel	-10.5545
ard	-10.5558
▁populations	-10.5562
ba	-10.5567
▁frequently	-10.5568
by	-10.5571
▁react	-10.5576
ts	-10.5582
▁con	-10.5584
▁1990	-10.5593
▁beneficial	-10.5598
▁Declaration	-10.5605
▁sending	-10.5608
▁Chechnya	-10.5612
▁troops	-10.5612
▁search	-10.5612
▁compatible	-10.5612
▁drivers	-10.5612
▁nobody	-10.5618
va	-10.5619
▁Americans	-10.5623
pp	-10.5626
▁rejection	-10.5635
▁looked	-10.5638
▁IGC	-10.5638
▁Year	-10.5645
▁contacts	-10.5646
▁pursued	-10.5648
ck	-10.5649
EEC	-10.5649
▁sincerely	-10.565
▁Soviet	-10.5652
▁clearer	-10.5659
ten	-10.566
▁arising	-10.5665
▁Second	-10.5666
▁shortly	-10.5672
▁Any	-10.5673
▁associations	-10.568
level	-10.5685
▁revenue	-10.5687
EU	-10.5689
▁dumping	-10.5695
▁Centre	-10.5699
▁wage	-10.5703
▁moved	-10.571
▁Also	-10.5739
▁2.	-10.5739
▁Canada	-10.5747
▁mid	-10.5752
▁accompanied	-10.5753
ted	-10.5759
▁solid	-10.576
▁ill	-10.5766
▁clarification	-10.5769
▁congratulating	-10.5773
▁emerging	-10.5773
▁OLAF	-10.5773
▁occur	-10.5775
ning	-10.5776
ized	-10.578
▁Every	-10.5787
mi	-10.5788
▁compete	-10.58
▁banking	-10.5816
▁divided	-10.5818
▁talked	-10.5827
▁Egypt	-10.5827
▁approximately	-10.5832
▁London	-10.5834
▁forum	-10.5838
▁exclusively	-10.5838
▁enlarged	-10.5842
▁alongside	-10.5846
▁observe	-10.5848
▁vehicle	-10.5865
▁keen	-10.5868
di	-10.587
ig	-10.5871
▁refuse	-10.5874
▁accessible	-10.5877
ru	-10.5879
▁efficiently	-10.5888
▁marine	-10.5896
ial	-10.5901
▁forests	-10.5912
▁simplify	-10.5918
ga	-10.592
▁harmonised	-10.5934
▁choices	-10.5938
▁apparent	-10.5938
▁Their	-10.594
▁division	-10.5941
▁conventions	-10.5942
▁observation	-10.5948
▁La	-10.5949
▁defending	-10.595
▁Labour	-10.5951
▁Great	-10.5951
▁Like	-10.5958
▁surveillance	-10.5965
▁Moldova	-10.5968
▁occupation	-10.5974
▁strictly	-10.5976
▁northern	-10.5992
▁judgment	-10.5997
▁Statute	-10.5999
▁crops	-10.6018
▁roads	-10.6034
▁route	-10.6039
▁postal	-10.6047
▁stations	-10.605
▁evident	-10.6059
▁blood	-10.6067
▁statute	-10.6069
▁disappointed	-10.607
▁Education	-10.6076
ure	-10.6081
▁Petitions	-10.609
▁rising	-10.609
▁N	-10.609
▁Objective	-10.6097
▁coherence	-10.6097
▁experiencing	-10.6097
▁begun	-10.6097
▁Otherwise	-10.6104
ious	-10.6108
country	-10.611
▁unanimity	-10.6111
▁loans	-10.6118
▁respecting	-10.6126
▁surrounding	-10.614
▁friendly	-10.615
▁fourth	-10.6153
▁Cohesion	-10.6167
▁jurisdiction	-10.6167
▁design	-10.617
▁opt	-10.6174
▁mere	-10.6174
▁notice	-10.6176
op	-10.6188
▁campaigns	-10.6193
▁neighbourhood	-10.6195
▁friend	-10.6196
▁consulted	-10.6201
▁chemical	-10.6202
debate	-10.6202
ab	-10.6205
CS	-10.6216
▁justification	-10.6221
▁ruling	-10.6223
▁Service	-10.6223
▁Finnish	-10.6224
▁host	-10.6224
▁Atlantic	-10.6225
▁desirable	-10.6238
▁directed	-10.6242
ill	-10.6243
▁2000,	-10.6244
▁perspectives	-10.6247
▁usual	-10.6261
▁Palestine	-10.6266
▁yourself	-10.6273
▁Communist	-10.6274
▁threatened	-10.6278
tra	-10.6279
os	-10.628
▁timely	-10.6285
▁resource	-10.6288
▁tangible	-10.6295
Mediterranean	-10.6301
▁image	-10.6302
▁unions	-10.6304
▁Two	-10.6316
▁threshold	-10.6323
▁pursuan	-10.6323
▁standing	-10.6327
▁tradition	-10.6327
▁nine	-10.6331
▁genetically	-10.6338
▁permitted	-10.6338
▁replaced	-10.6338
▁conservation	-10.6345
▁victim	-10.6345
▁sharing	-10.6347
▁connected	-10.6347
▁authorisation	-10.6353
▁drive	-10.6355
▁forgotten	-10.6366
▁refused	-10.6379
▁acceptance	-10.6382
▁alternatives	-10.6384
▁house	-10.6385
▁traditions	-10.6388
▁emission	-10.6389
ical	-10.6395
▁procedural	-10.6395
▁lacking	-10.6401
▁excuse	-10.6402
▁sight	-10.6407
▁Single	-10.641
▁residence	-10.6439
▁examination	-10.6439
▁sit	-10.6444
▁Your	-10.645
▁defining	-10.6475
▁respective	-10.6477
▁joined	-10.6477
▁impetus	-10.6489
▁mobile	-10.649
▁observers	-10.6492
▁Allow	-10.6498
▁hoped	-10.6499
▁controversial	-10.6511
▁net	-10.6512
▁consequently	-10.6512
▁confusion	-10.6519
▁categories	-10.6526
▁north	-10.6539
off	-10.6542
▁soil	-10.6543
▁ideal	-10.6546
▁integrity	-10.6548
▁socio	-10.6553
▁Defence	-10.6555
▁equivalent	-10.6555
▁puts	-10.6562
▁dramatic	-10.6577
▁contributing	-10.6577
▁worthy	-10.6583
▁underlying	-10.6592
▁win	-10.6593
▁Regarding	-10.6607
▁textile	-10.661
quality	-10.6611
▁imposing	-10.6614
▁raises	-10.6621
▁showed	-10.6628
▁Information	-10.6629
▁resumed	-10.6631
HU	-10.6633
▁logical	-10.6634
▁helpful	-10.6639
▁reconciliation	-10.6643
▁length	-10.6656
▁characteristics	-10.666
▁slightly	-10.666
▁items	-10.666
▁migrants	-10.6678
▁Le	-10.6679
▁1994	-10.6683
▁expansion	-10.6688
▁intensive	-10.6693
be	-10.6704
▁warm	-10.6714
▁farms	-10.6715
▁housing	-10.6718
▁Ba	-10.6719
▁estimated	-10.672
▁Al	-10.672
▁scrutiny	-10.6725
▁destroy	-10.6735
▁Criminal	-10.6748
▁funded	-10.6751
▁preventive	-10.6753
▁interim	-10.6756
▁arrive	-10.6764
▁missing	-10.6767
▁J	-10.677
▁signing	-10.6782
▁withdrawal	-10.6789
▁50%	-10.6793
▁whatsoever	-10.68
▁ch	-10.6808
▁highlights	-10.6812
▁coastal	-10.6817
▁railways	-10.6818
▁perfect	-10.6825
▁joining	-10.6825
▁Solidarity	-10.683
▁preliminary	-10.683
▁St	-10.6831
▁systematic	-10.6831
▁chapter	-10.6834
▁Friday	-10.6838
▁Malta	-10.6838
▁distributed	-10.6839
▁commend	-10.6843
▁block	-10.6844
▁organizations	-10.6851
▁ambitions	-10.6852
▁notably	-10.6857
▁subsequently	-10.6858
▁contrast	-10.686
▁subsequent	-10.687
ritten	-10.6875
▁Who	-10.6876
▁Li	-10.6877
▁achievements	-10.688
▁advocate	-10.6882
▁Monday	-10.6883
▁managing	-10.6883
▁thousand	-10.6888
▁approaches	-10.6905
▁Please	-10.6906
▁confident	-10.6906
▁breach	-10.6912
ward	-10.6916
▁controlled	-10.6917
▁agrees	-10.6918
▁violent	-10.6937
▁exchanges	-10.6941
▁integrate	-10.6946
▁judge	-10.6947
ability	-10.695
▁micro	-10.6951
▁inside	-10.6953
governmental	-10.6955
▁investors	-10.6955
outermost	-10.6959
▁advanced	-10.6961
▁destroyed	-10.6967
▁accordingly	-10.6976
▁assessments	-10.6978
bo	-10.699
▁representing	-10.6999
▁envisaged	-10.6999
▁ratify	-10.7
▁murder	-10.7008
▁300	-10.7011
▁grave	-10.7013
▁imported	-10.7031
▁failing	-10.7032
▁Dublin	-10.7036
▁losing	-10.7036
ow	-10.7042
▁woman	-10.7044
▁restrictive	-10.7044
▁reported	-10.705
▁birth	-10.7051
▁sad	-10.7052
▁Doha	-10.7056
lu	-10.7061
▁August	-10.7066
%	-10.7066
▁consent	-10.7066
ph	-10.7077
▁participating	-10.7082
▁universities	-10.7082
▁en	-10.7086
▁conviction	-10.7088
▁chemicals	-10.7091
▁sentence	-10.7091
▁regularly	-10.7092
▁appointment	-10.7104
▁cultures	-10.7105
▁System	-10.7105
▁banned	-10.7106
▁resistance	-10.7113
▁solved	-10.7118
▁di	-10.7119
▁discipline	-10.7121
▁inhabitants	-10.7126
for	-10.7131
▁Wednesday	-10.7144
▁fixed	-10.7146
▁Tunisia	-10.7147
▁exceptions	-10.7151
▁flows	-10.7156
▁die	-10.716
▁Sudan	-10.7167
▁sales	-10.717
▁plays	-10.7171
▁safeguarding	-10.7172
▁founded	-10.7175
▁gained	-10.7192
▁eventually	-10.7192
▁infringement	-10.7198
▁hundred	-10.7206
▁error	-10.7206
▁mistakes	-10.7207
5-00	-10.721
▁convince	-10.7217
ub	-10.7217
▁providers	-10.7218
▁tough	-10.722
▁covering	-10.722
▁reductions	-10.7226
▁Democratic	-10.7227
▁absurd	-10.7229
▁Lebanon	-10.7245
▁blind	-10.7245
ging	-10.7248
▁disputes	-10.725
▁pretext	-10.7253
▁Brazil	-10.7261
▁concentration	-10.7261
way	-10.7271
▁incorporate	-10.7303
▁tolerance	-10.7308
▁card	-10.731
▁fires	-10.7311
▁abroad	-10.7316
▁rational	-10.7318
▁monitored	-10.7323
▁mandatory	-10.7324
▁dead	-10.7337
▁shift	-10.7343
ect	-10.7347
▁gross	-10.7348
▁Similarly	-10.7348
▁map	-10.735
reaching	-10.735
▁touch	-10.7359
▁executive	-10.7364
▁[	-10.7365
▁decline	-10.7367
▁stringent	-10.7372
cu	-10.7378
▁exploit	-10.7399
ization	-10.7414
▁rely	-10.7416
▁fit	-10.743
03	-10.7434
▁abuses	-10.7438
▁Solana	-10.7444
▁supervisory	-10.7444
▁fails	-10.7445
▁freight	-10.7452
▁Ms	-10.7452
01	-10.7456
▁ignored	-10.7458
▁foundation	-10.7459
▁Hence	-10.746
▁hour	-10.7472
▁listening	-10.7474
▁dangers	-10.7478
▁movements	-10.7481
▁anniversary	-10.7484
▁acknowledged	-10.7485
▁coal	-10.7489
▁warrant	-10.7492
▁surprise	-10.7495
▁older	-10.7496
▁marked	-10.7498
▁containing	-10.7499
▁black	-10.75
▁humanity	-10.7501
ions	-10.7502
▁wages	-10.7514
▁ALDE	-10.7516
▁Reform	-10.7523
▁decent	-10.7523
▁pursuing	-10.7524
▁registration	-10.7524
▁popular	-10.7531
▁consistency	-10.7532
▁35	-10.7532
▁object	-10.7532
▁president	-10.7535
▁assets	-10.7541
wing	-10.7543
▁fears	-10.7544
▁1.	-10.7544
day	-10.7545
▁fuels	-10.755
▁investigations	-10.755
▁delegations	-10.7552
▁Patten	-10.7565
▁stakeholders	-10.7565
▁Services	-10.7565
pro	-10.7569
▁accepting	-10.7576
▁sincere	-10.7577
▁albeit	-10.7581
▁regimes	-10.7582
▁suggests	-10.7585
▁ship	-10.7587
▁expertise	-10.7597
▁EIB	-10.7598
▁organic	-10.7603
▁resolving	-10.7613
▁catch	-10.7626
▁signs	-10.7628
▁cent	-10.7633
▁10%	-10.764
rate	-10.7645
▁2009.	-10.7645
▁Chairman	-10.7647
▁visited	-10.7649
▁functions	-10.7656
▁invited	-10.7661
▁attend	-10.7666
res	-10.7666
▁Or	-10.7672
▁Romanian	-10.7672
▁evaluate	-10.7674
▁farm	-10.7675
pe	-10.7683
Rule	-10.7687
of	-10.769
▁Syria	-10.7691
▁outlined	-10.7698
line	-10.77
▁imperative	-10.7703
▁accountability	-10.7707
▁liked	-10.7711
▁Could	-10.7711
▁infrastructures	-10.7713
▁actors	-10.7714
▁Liberals	-10.7717
▁furthermore	-10.7721
men	-10.7723
▁fifteen	-10.7728
▁Decision	-10.7732
▁variety	-10.7736
▁2010.	-10.7739
▁experiences	-10.7741
▁den	-10.7744
▁wind	-10.7752
▁female	-10.7753
▁meantime	-10.7755
▁accounting	-10.7756
▁Libya	-10.7757
▁answered	-10.7757
▁collapse	-10.7764
▁proven	-10.7766
▁prime	-10.777
▁finish	-10.7774
▁criterion	-10.7786
▁denied	-10.7786
▁employed	-10.7798
▁immunity	-10.7802
▁2000.	-10.7808
we	-10.782
▁cast	-10.7821
▁compromises	-10.7828
▁modernisation	-10.7829
vote	-10.7833
▁consolidation	-10.7836
▁pharmaceutical	-10.7836
▁falling	-10.7847
▁tonight	-10.7852
▁unilateral	-10.7854
▁sympathy	-10.7869
▁fifth	-10.787
▁train	-10.787
▁offices	-10.7882
▁incentive	-10.7891
▁refugee	-10.7892
▁usually	-10.7892
▁gradual	-10.7897
▁voters	-10.7899
▁foster	-10.7899
▁ceiling	-10.7908
yes	-10.7909
▁endeavour	-10.7912
▁g	-10.7915
▁autonomy	-10.7919
▁detention	-10.7919
iv	-10.7923
ag	-10.7925
red	-10.793
▁learned	-10.7932
▁dossier	-10.7933
ens	-10.7935
▁visible	-10.7936
▁stages	-10.7939
▁concludes	-10.795
▁except	-10.7952
▁Ashton	-10.7953
▁80	-10.7958
ak	-10.7958
ists	-10.7975
▁criminals	-10.7979
▁fate	-10.798
▁cutting	-10.7981
pa	-10.7981
▁Other	-10.7984
▁indication	-10.7984
▁dictatorship	-10.7984
▁maintenance	-10.7987
ative	-10.8
▁backing	-10.8011
▁models	-10.8013
▁endorsed	-10.8026
▁OSCE	-10.8029
▁sites	-10.8034
▁productive	-10.8037
▁badly	-10.8037
▁corresponding	-10.8044
▁GMOs	-10.8046
▁released	-10.8048
▁character	-10.8053
▁disastrous	-10.8055
so	-10.8058
▁false	-10.8063
▁substantially	-10.8065
▁hopefully	-10.8069
▁looks	-10.8069
▁died	-10.807
▁Bush	-10.8072
▁virtually	-10.8074
▁appointed	-10.8076
ie	-10.8077
▁feature	-10.8078
▁Millennium	-10.808
▁renewed	-10.8083
▁storage	-10.8089
▁adequately	-10.8099
▁Iranian	-10.8107
▁argue	-10.8108
▁features	-10.8108
ler	-10.8109
▁Above	-10.8114
▁entering	-10.8118
▁recognises	-10.8128
▁seat	-10.8129
▁Naturally	-10.814
▁visas	-10.8141
▁observations	-10.8144
▁ageing	-10.8151
▁acted	-10.8153
▁conscience	-10.8157
der	-10.8158
▁examining	-10.8166
▁essence	-10.8175
▁Annex	-10.8175
discrimination	-10.8176
ud	-10.8188
old	-10.8197
▁consistently	-10.8208
▁productivity	-10.8209
▁explanations	-10.8211
▁1992	-10.8218
▁Scotland	-10.8218
▁names	-10.8222
▁clauses	-10.8225
▁game	-10.8225
▁cope	-10.8226
▁apparently	-10.8233
▁privacy	-10.8235
▁borne	-10.8238
▁avoided	-10.8239
▁safeguards	-10.824
▁scientists	-10.8243
bi	-10.8245
▁heads	-10.8245
▁statistical	-10.8248
▁revolution	-10.8252
▁damaging	-10.8252
▁airport	-10.8261
▁consultations	-10.8278
▁Schulz	-10.8278
ka	-10.8279
▁emerged	-10.8283
▁Verheugen	-10.8287
▁inquiry	-10.8287
▁devoted	-10.8293
▁Fischler	-10.8296
king	-10.8302
▁Slovenia	-10.8302
▁tend	-10.8303
5-01	-10.8305
▁notion	-10.8307
▁assurance	-10.8313
▁inspection	-10.8313
▁completion	-10.8322
▁closure	-10.8331
▁satellite	-10.8331
▁initially	-10.8338
▁everywhere	-10.834
▁adaptation	-10.8346
FI	-10.8362
▁stick	-10.8363
▁book	-10.8368
▁la	-10.8372
▁focusing	-10.8373
▁foot	-10.8381
▁programming	-10.8383
▁im	-10.8392
ton	-10.8393
▁straight	-10.8419
ize	-10.8423
▁rigorous	-10.8449
▁tackled	-10.8453
▁Congo	-10.8454
▁deficits	-10.8456
▁consolidate	-10.8458
▁title	-10.8463
▁Switzerland	-10.8472
▁progressive	-10.8481
▁Whilst	-10.849
▁Santer	-10.849
▁reserves	-10.8503
▁silence	-10.8507
▁dream	-10.8509
▁MEP	-10.8509
ably	-10.851
▁leaves	-10.851
ence	-10.8513
▁embargo	-10.8516
▁Brok	-10.8516
▁paragraphs	-10.8523
▁arrived	-10.8523
▁Stockholm	-10.8525
▁translation	-10.8525
▁partnerships	-10.8527
▁recommended	-10.8537
▁exclusive	-10.8538
▁repression	-10.8543
▁testing	-10.8551
▁struck	-10.8552
▁Tibet	-10.856
▁democratically	-10.8567
▁stimulate	-10.8574
▁inappropriate	-10.8578
▁punishment	-10.8589
▁accused	-10.8591
▁sums	-10.8591
▁class	-10.8591
▁precautionary	-10.8597
▁attach	-10.8604
▁minor	-10.8607
▁cheap	-10.8615
▁expert	-10.8617
▁distance	-10.8637
▁divide	-10.8637
▁autumn	-10.8642
▁reporting	-10.8643
▁volume	-10.8644
mp	-10.865
▁investigate	-10.8655
▁Liberties	-10.866
▁planet	-10.8666
▁explicitly	-10.8673
▁Tampere	-10.8678
W	-10.868
▁fought	-10.8687
▁cycle	-10.869
▁Ro	-10.8693
▁deny	-10.8706
▁vocational	-10.8706
▁enabled	-10.8711
friendly	-10.8716
▁ensured	-10.8723
▁sections	-10.8724
▁continuation	-10.8725
▁personnel	-10.8726
▁complement	-10.8727
▁irregularities	-10.8733
▁3.	-10.8734
▁fault	-10.8742
com	-10.8743
▁emphasize	-10.8746
▁fundamentally	-10.8749
▁soldiers	-10.8751
▁simplified	-10.8751
▁story	-10.8751
▁desired	-10.8752
si	-10.8761
▁era	-10.8763
▁middle	-10.8769
▁exemption	-10.8773
▁enshrined	-10.8789
▁sold	-10.8793
▁orientation	-10.8797
▁repercussions	-10.8797
▁sports	-10.8798
▁disadvantaged	-10.881
▁o	-10.8812
▁2006,	-10.8814
▁football	-10.8815
▁30%	-10.8816
▁Would	-10.8833
▁fulfilled	-10.8834
▁cease	-10.8838
▁wherever	-10.8842
ber	-10.8842
▁sell	-10.885
▁enables	-10.8851
▁handling	-10.8851
▁shipping	-10.8861
nd	-10.8862
▁harmonise	-10.8865
DA	-10.8866
▁Globalisation	-10.8871
ner	-10.8887
▁delivered	-10.889
vis	-10.8894
▁seekers	-10.8896
▁democratisation	-10.8898
▁laying	-10.8902
▁adapted	-10.8914
▁fashion	-10.8916
▁inequalities	-10.8917
▁exposed	-10.8929
▁sex	-10.8932
▁speculation	-10.8935
▁component	-10.8949
ven	-10.895
fi	-10.8951
▁innocent	-10.8954
go	-10.8956
▁criticise	-10.8958
▁removal	-10.8963
▁horizontal	-10.8963
▁detriment	-10.8966
▁sole	-10.8967
▁flights	-10.8968
▁GUE	-10.8972
medicinal	-10.8981
▁attractive	-10.8991
▁Special	-10.8991
▁pace	-10.8991
▁notes	-10.8992
▁lifelong	-10.8992
▁w	-10.8993
▁participants	-10.9001
▁initiated	-10.9005
udgetary	-10.9007
▁parliamentarian	-10.901
▁meets	-10.9012
lt	-10.9016
▁Helsinki	-10.9019
▁attached	-10.902
▁presidential	-10.9029
▁terror	-10.9036
▁preparatory	-10.9038
▁won	-10.9039
SK	-10.9043
▁ideological	-10.9047
▁ownership	-10.9057
▁sale	-10.9064
▁transferred	-10.907
▁openly	-10.9071
▁narrow	-10.9085
▁twice	-10.9085
▁socially	-10.9087
NGL	-10.9094
initiative	-10.9096
▁combine	-10.9099
▁Olympic	-10.9113
min	-10.9114
▁assured	-10.9118
▁shame	-10.9122
use	-10.9122
▁multiannual	-10.9123
▁dependence	-10.9124
▁logic	-10.9129
▁objections	-10.9132
▁quick	-10.9134
▁obstacle	-10.9139
▁strive	-10.9142
▁Ra	-10.9149
▁Everyone	-10.9152
▁accurate	-10.9155
▁principal	-10.9155
placing	-10.9159
▁inevitably	-10.9161
▁linguistic	-10.9161
▁mine	-10.9162
▁differ	-10.9164
ice	-10.9165
▁alarming	-10.9168
▁forestry	-10.9171
▁saving	-10.9171
▁patient	-10.9177
ish	-10.9181
▁pressing	-10.9186
▁stricter	-10.9187
▁facility	-10.9189
▁recognize	-10.9194
▁enterprise	-10.9197
▁precedent	-10.9199
▁persecution	-10.9199
▁Institute	-10.9209
▁Day	-10.921
▁fallen	-10.9212
▁2007.	-10.9235
▁hunger	-10.9237
▁constraints	-10.9238
▁race	-10.9247
▁tape	-10.9253
▁abortion	-10.9256
▁40%	-10.9257
▁potentially	-10.9258
▁foodstuffs	-10.9264
▁appalling	-10.9266
▁modest	-10.9269
▁Be	-10.927
▁praise	-10.9271
▁2007,	-10.9277
▁concessions	-10.9278
▁80%	-10.9295
▁originally	-10.9297
▁draftsman	-10.9305
▁comparable	-10.9314
▁monopoly	-10.9314
▁Youth	-10.9318
▁wished	-10.9322
ALE	-10.9324
▁1993	-10.9324
▁wholeheartedly	-10.9325
▁USD	-10.9328
hi	-10.9332
▁characterised	-10.9335
▁Fourthly	-10.9336
▁ended	-10.9337
▁incident	-10.9341
▁errors	-10.9344
▁bio	-10.9345
▁AIDS	-10.9346
▁2010,	-10.9351
▁islands	-10.9351
▁transposition	-10.9353
▁internationally	-10.9355
▁U	-10.9357
▁70	-10.9364
▁2008.	-10.9371
▁constituency	-10.9372
▁inspections	-10.9373
▁homes	-10.9373
ants	-10.9378
▁appreciation	-10.9382
▁western	-10.9383
▁donors	-10.9383
▁findings	-10.9384
▁generate	-10.9386
▁2008,	-10.9386
▁lists	-10.9387
▁systematically	-10.9392
▁His	-10.9397
▁responses	-10.94
▁Federal	-10.9401
end	-10.9406
ap	-10.9414
▁n	-10.9417
▁Latvia	-10.9426
▁assessing	-10.943
▁irrespective	-10.9431
▁stating	-10.9441
▁researchers	-10.9452
▁rating	-10.9453
tu	-10.9454
▁practically	-10.9456
▁abandon	-10.9459
▁adverse	-10.9464
▁biofuels	-10.9465
▁broadly	-10.9466
▁hazardous	-10.9471
▁Algeria	-10.9475
▁2011	-10.9477
▁helps	-10.9477
▁closing	-10.948
▁remained	-10.948
▁Among	-10.948
▁announcement	-10.9482
▁deciding	-10.949
▁serves	-10.949
▁automatically	-10.9509
▁Mexico	-10.951
▁stopped	-10.951
▁convey	-10.9511
▁recorded	-10.9511
▁telling	-10.9512
▁adjustment	-10.952
▁workplace	-10.9521
▁Vienna	-10.9529
▁composition	-10.9529
▁criticised	-10.9534
▁posts	-10.9538
▁refusal	-10.9539
▁demanded	-10.9543
▁cr	-10.9549
▁decade	-10.9549
▁publication	-10.955
▁owe	-10.9551
▁routes	-10.9552
▁complied	-10.9559
sa	-10.9561
▁cod	-10.9565
▁interference	-10.9569
▁pillars	-10.9573
▁survival	-10.9578
▁mother	-10.9592
▁intelligent	-10.9593
▁xenophobia	-10.9598
▁audit	-10.9602
▁disabilities	-10.9608
▁Ka	-10.9609
▁mental	-10.9618
▁Galileo	-10.9618
▁travelling	-10.962
depth	-10.9621
▁producer	-10.9628
▁Law	-10.9629
▁retirement	-10.9638
▁thoroughly	-10.9639
▁consult	-10.9647
▁tuna	-10.9648
▁worried	-10.9648
employed	-10.966
ping	-10.9667
au	-10.9668
▁Z	-10.9668
▁guilty	-10.9669
▁Third	-10.9673
▁mo	-10.9677
▁Hamas	-10.9678
▁label	-10.968
▁recycling	-10.9688
▁missions	-10.9688
ction	-10.9693
▁civilians	-10.9695
▁Saddam	-10.9698
▁offences	-10.9699
▁Estonia	-10.9702
▁deadlines	-10.9708
▁assessed	-10.9708
▁computer	-10.9709
▁channels	-10.9713
▁Resolution	-10.9718
▁wake	-10.9718
▁organization	-10.972
▁mis	-10.9724
▁Kurdish	-10.9728
▁coordinating	-10.9728
▁remit	-10.973
▁lesson	-10.9742
▁root	-10.9742
▁unit	-10.9747
▁Timor	-10.9748
▁delicate	-10.9748
▁bottom	-10.9749
▁genocide	-10.9758
▁strange	-10.9769
▁remark	-10.9772
▁topical	-10.9777
▁comitology	-10.9779
▁Code	-10.978
▁formally	-10.9787
▁symbol	-10.9788
▁marks	-10.9796
▁bases	-10.9801
ster	-10.9804
▁subjected	-10.9804
▁Verts	-10.9809
▁camps	-10.9812
▁roll	-10.9819
▁creative	-10.9829
▁zero	-10.9829
▁victory	-10.983
▁uphold	-10.983
▁indirect	-10.9832
▁pays	-10.9833
over	-10.9833
▁criticisms	-10.9835
▁atmosphere	-10.984
▁scheduled	-10.9843
▁await	-10.985
▁incidents	-10.9851
▁authorised	-10.9853
▁2004.	-10.9855
▁reminded	-10.9861
▁Ho	-10.9871
▁thirdly	-10.9873
▁euros	-10.989
▁rid	-10.9891
▁Con	-10.9891
▁everyday	-10.9894
▁moratorium	-10.9901
▁flag	-10.9906
▁unprecedented	-10.9911
▁demonstration	-10.9914
▁minds	-10.9919
▁relief	-10.9921
▁Guinea	-10.9921
ov	-10.9926
▁Me	-10.9929
▁protectionism	-10.9932
ble	-10.9934
▁topics	-10.994
▁audiovisual	-10.9942
▁obtaining	-10.9942
▁generous	-10.9947
▁art	-10.9951
▁estimates	-10.9952
ns	-10.9957
▁condemnation	-10.9958
▁Na	-10.9966
▁contradiction	-10.9967
▁empty	-10.9973
▁invitation	-10.9973
▁town	-10.9973
▁2013	-10.9975
05	-10.9976
pi	-10.9979
▁analyse	-10.9982
▁remedy	-10.9983
▁realised	-10.9985
▁grants	-10.9989
▁Christians	-10.9989
▁Black	-10.9993
ric	-11
▁depth	-11.0001
ite	-11.0002
▁combination	-11.0004
▁isolation	-11.0004
▁trouble	-11.0019
▁beneficiaries	-11.0024
▁withdrawn	-11.0028
▁arrangement	-11.0029
und	-11.0033
▁vague	-11.0035
met	-11.0048
▁90	-11.0053
▁federal	-11.0058
▁references	-11.006
▁persuade	-11.0061
▁Jo	-11.0064
▁Federation	-11.0066
▁heavily	-11.0066
▁pragmatic	-11.0066
▁avoiding	-11.0075
▁onto	-11.0077
▁2006.	-11.0086
▁facilitating	-11.0087
▁passing	-11.0089
▁workforce	-11.0089
fe	-11.0095
▁Should	-11.0097
▁misunderstand	-11.0097
▁returned	-11.0106
▁arises	-11.0115
▁floods	-11.0117
▁Asian	-11.0118
io	-11.0121
▁arrested	-11.0122
wa	-11.0123
▁privatisation	-11.0129
ification	-11.0137
▁genetic	-11.0139
▁presents	-11.0142
LT	-11.0146
▁born	-11.0148
▁govern	-11.0149
▁publish	-11.015
▁stem	-11.016
▁Baroness	-11.016
▁abolish	-11.0161
▁reviewed	-11.0162
▁enforce	-11.0164
▁dear	-11.0168
▁st	-11.0169
▁pesticides	-11.0169
▁Democrat	-11.017
▁remarkable	-11.0172
▁addresses	-11.0172
▁banana	-11.0177
▁wonderful	-11.018
▁transfers	-11.0185
▁HIV	-11.0192
▁Hague	-11.0202
side	-11.0205
▁Mar	-11.0206
▁reverse	-11.0208
▁Congress	-11.0213
▁anywhere	-11.0227
▁input	-11.0237
nes	-11.0237
▁drop	-11.0244
▁clarified	-11.0245
▁telephone	-11.0245
▁instability	-11.0245
if	-11.0246
▁radio	-11.0255
▁exclude	-11.0256
▁contributes	-11.0261
▁articles	-11.0274
▁disadvantage	-11.0278
▁consists	-11.0284
▁irresponsible	-11.0287
▁400	-11.0298
▁wise	-11.0302
▁ultimate	-11.0303
▁2007-2013	-11.0309
▁prerequisite	-11.0315
rea	-11.0319
▁Ukrainian	-11.0319
▁slaughter	-11.0321
▁devote	-11.0323
▁indicates	-11.0325
▁posed	-11.0335
pt	-11.0339
▁towns	-11.034
▁perform	-11.034
▁stresses	-11.0341
▁quarter	-11.0347
▁macro	-11.0362
▁Perspective	-11.0362
▁integral	-11.0362
▁corporate	-11.0362
▁exert	-11.0363
▁incomes	-11.0366
▁reinforced	-11.037
▁Kinnock	-11.0373
▁quantity	-11.0373
▁dual	-11.0374
▁Through	-11.0383
▁phrase	-11.0394
(2)	-11.04
▁differently	-11.0404
▁Apart	-11.0407
▁solving	-11.0408
▁emerge	-11.0408
▁attempting	-11.0408
▁governed	-11.0413
▁gases	-11.0413
▁diverse	-11.0416
▁responding	-11.0419
▁investing	-11.0425
▁Madrid	-11.0426
▁indispensable	-11.0426
▁monopolies	-11.0426
97	-11.0434
▁registered	-11.0442
▁Car	-11.0452
▁normally	-11.0454
▁disparities	-11.0459
▁describe	-11.0462
▁abolished	-11.0467
▁toxic	-11.0471
▁witnessed	-11.0487
▁Caucasus	-11.0491
▁assembly	-11.0502
▁livestock	-11.0513
▁smoking	-11.0514
les	-11.0514
▁civilisation	-11.0517
▁sustained	-11.0518
▁resort	-11.0523
▁recognising	-11.0524
▁removing	-11.0524
▁served	-11.0534
▁isolated	-11.0537
▁CFSP	-11.0547
COD	-11.0549
▁Monti	-11.0551
▁affair	-11.0566
state	-11.0568
▁trends	-11.0572
▁recession	-11.0579
▁r	-11.0586
▁Democracy	-11.059
▁democracies	-11.059
▁remote	-11.06
fer	-11.0612
tro	-11.0613
▁Nordic	-11.0615
▁unlike	-11.0629
▁identification	-11.0634
▁problematic	-11.0635
▁lowest	-11.0637
▁survive	-11.064
▁adding	-11.064
▁inevitable	-11.0645
ient	-11.0649
▁strikes	-11.0657
▁whenever	-11.0663
▁satisfy	-11.0666
▁availability	-11.0667
▁expand	-11.0669
bu	-11.067
da	-11.0672
▁rare	-11.0674
▁expenses	-11.0676
▁donor	-11.0677
▁aspirations	-11.0678
▁inequality	-11.0678
▁emphasises	-11.0684
▁illegally	-11.0689
▁poorer	-11.0692
▁Br	-11.0696
▁Montenegro	-11.07
▁mix	-11.0703
▁merit	-11.0703
))	-11.0709
▁courageous	-11.0712
▁transnational	-11.0714
▁symbolic	-11.0715
▁profound	-11.0717
▁Blair	-11.0722
▁pick	-11.0726
gen	-11.0729
▁enthusiasm	-11.0733
▁enjoyed	-11.0733
▁interventions	-11.0734
▁believed	-11.0735
▁Martin	-11.0744
ng	-11.0745
▁32	-11.0746
▁Slovak	-11.0746
▁Neighbourhood	-11.0756
▁footing	-11.076
▁Nigeria	-11.0763
des	-11.0768
▁pan	-11.0775
▁securing	-11.0778
▁caught	-11.0778
▁Against	-11.0779
las	-11.0787
▁energies	-11.0789
▁match	-11.079
tion	-11.0806
10	-11.081
▁claimed	-11.0811
▁philosophy	-11.0812
▁lend	-11.0815
▁cells	-11.0817
▁Quite	-11.0823
▁bi	-11.0823
▁burdens	-11.0825
▁advances	-11.0834
ou	-11.0843
▁steel	-11.0845
rt	-11.0848
▁2005.	-11.0851
▁Sa	-11.0851
▁Directorate	-11.086
▁limiting	-11.0867
▁Taiwan	-11.0868
▁Arctic	-11.0868
▁dioxide	-11.0868
▁bill	-11.0868
▁Ar	-11.0868
▁patents	-11.0871
▁chair	-11.0871
▁interpreted	-11.0875
▁Pa	-11.0876
▁appeared	-11.0879
▁gratitude	-11.0879
istic	-11.0881
▁doors	-11.0883
▁occupied	-11.089
▁maybe	-11.0898
▁earmarked	-11.0903
▁weaken	-11.0906
▁frankly	-11.0906
▁dairy	-11.0913
▁disappointment	-11.0913
▁Eurostat	-11.0915
▁manufacturing	-11.0924
▁cattle	-11.0924
▁Frontex	-11.0924
▁concepts	-11.0925
▁threatening	-11.0925
▁Ca	-11.0929
▁definitive	-11.0942
▁1%	-11.0942
▁location	-11.0949
▁Kong	-11.0959
▁Each	-11.0959
▁guide	-11.0965
▁pose	-11.0968
▁Paris	-11.0969
▁Prize	-11.097
▁v	-11.0971
▁hide	-11.0971
▁preference	-11.0971
▁publicly	-11.0974
od	-11.0974
ped	-11.0979
▁repair	-11.0981
▁von	-11.0982
▁handled	-11.099
▁Until	-11.0993
▁encouragement	-11.0998
▁concluding	-11.1016
▁focuses	-11.1017
che	-11.1018
▁purchase	-11.1023
ranging	-11.1024
▁broken	-11.1028
30	-11.1028
▁relationships	-11.1029
▁confirms	-11.103
▁pointing	-11.103
▁messages	-11.1032
▁tremendous	-11.1033
▁licences	-11.1036
har	-11.1037
▁requiring	-11.1038
▁scandal	-11.104
▁San	-11.1042
K	-11.1048
▁reproductive	-11.1052
▁safer	-11.1057
▁fleets	-11.1057
▁multinational	-11.1063
▁swift	-11.1067
▁Neither	-11.1073
▁eco	-11.1077
▁warming	-11.108
relatively	-11.1083
▁split	-11.1084
▁neighbour	-11.1086
▁formula	-11.1092
▁Hong	-11.1096
▁45	-11.1098
▁aiming	-11.1113
▁Indonesia	-11.1116
▁abandoned	-11.1117
▁Peace	-11.1119
▁displaced	-11.1119
▁indirectly	-11.1125
▁Colombia	-11.1128
▁multinationals	-11.1129
▁delayed	-11.1129
▁Yesterday	-11.1131
▁electorate	-11.1131
▁cooperative	-11.1131
▁wall	-11.1133
▁reaffirm	-11.1134
son	-11.1143
▁write	-11.1153
gi	-11.1154
ible	-11.1158
▁2,	-11.1162
▁1999.	-11.1167
▁overwhelming	-11.1172
▁convincing	-11.1177
▁quantities	-11.1177
▁licence	-11.118
▁Conciliation	-11.1189
▁preferred	-11.1189
▁bar	-11.1192
▁initiate	-11.1195
ned	-11.1198
▁veto	-11.12
▁biological	-11.1201
▁petition	-11.1203
ations	-11.1203
ach	-11.1208
▁elimination	-11.1212
▁exploited	-11.1212
▁roots	-11.1213
▁postponed	-11.1217
▁tariff	-11.1217
▁positively	-11.1238
ran	-11.1241
▁48	-11.1244
▁suspension	-11.1247
▁Ecofin	-11.1247
▁wars	-11.1249
▁El	-11.1254
▁Afghan	-11.1259
▁intelligence	-11.1259
▁2012	-11.1267
▁conjunction	-11.1271
▁Process	-11.1271
▁doctors	-11.1281
▁Hussein	-11.1282
▁expressly	-11.1291
▁secondary	-11.1293
▁York	-11.1294
▁regulating	-11.1294
▁violated	-11.1297
15	-11.1298
ick	-11.1314
▁switch	-11.1318
▁dedicated	-11.1319
▁sectoral	-11.132
▁judiciary	-11.1329
á	-11.1334
▁player	-11.1338
▁suspicion	-11.1341
▁organized	-11.1343
▁explicit	-11.1348
▁Milosevic	-11.1353
▁determining	-11.1353
▁Mi	-11.1361
▁teachers	-11.1366
ign	-11.137
qui	-11.1375
▁transmission	-11.1377
ug	-11.1378
▁charter	-11.1379
dy	-11.1385
▁brutal	-11.1394
▁Rather	-11.1401
▁destination	-11.1401
▁driven	-11.1406
▁enforced	-11.1406
▁prompt	-11.1411
▁pipeline	-11.1417
▁36	-11.1418
▁reconsider	-11.1422
▁invested	-11.1424
▁weaknesses	-11.1426
ates	-11.1434
▁update	-11.144
▁complexity	-11.1441
▁pity	-11.1446
▁Cuban	-11.1446
▁interfere	-11.1448
▁Adjustment	-11.1448
call	-11.145
▁bold	-11.1461
▁signals	-11.1469
▁Chancellor	-11.1472
▁understandable	-11.1475
▁Se	-11.1475
her	-11.1475
fully	-11.1479
▁communicate	-11.1479
▁controlling	-11.148
▁deplore	-11.1484
▁feasible	-11.1484
▁wave	-11.1489
▁Certainly	-11.1499
(1)	-11.1502
sp	-11.1504
▁supplement	-11.1505
▁OECD	-11.1509
)).	-11.1511
▁broadcasting	-11.1516
▁shortage	-11.1518
▁harmonization	-11.152
▁recital	-11.1526
▁derogation	-11.1526
▁employ	-11.1532
▁2003.	-11.1533
▁execution	-11.1538
▁generated	-11.1539
▁complaint	-11.154
▁uses	-11.1546
▁Bar	-11.1547
▁4.	-11.1547
▁faster	-11.1549
▁urged	-11.1551
▁exact	-11.1551
ries	-11.1554
▁flight	-11.1563
▁Beijing	-11.1569
ja	-11.1572
▁minors	-11.1578
▁Relations	-11.1581
▁moves	-11.1586
▁east	-11.1586
que	-11.1589
▁adjustments	-11.1593
06	-11.1594
▁earn	-11.1594
▁banning	-11.1594
▁spectrum	-11.1605
▁integrating	-11.1605
▁separation	-11.1617
CNS	-11.1617
▁profile	-11.1618
▁renewal	-11.1619
▁150	-11.1624
ide	-11.1627
▁traceability	-11.1629
▁copyright	-11.1629
▁disregard	-11.1633
accession	-11.1634
ev	-11.1635
▁online	-11.1636
▁pluralism	-11.1641
▁IMF	-11.1642
▁halt	-11.1646
▁units	-11.1652
▁implies	-11.1654
▁preservation	-11.1654
▁specified	-11.1654
▁radioactive	-11.1654
▁disappear	-11.1657
▁applaud	-11.1658
▁abstain	-11.1658
▁coast	-11.1658
oc	-11.1659
▁platform	-11.166
▁33	-11.1664
▁administrations	-11.1671
▁escape	-11.1673
▁Ko	-11.1673
▁foods	-11.1674
▁drinking	-11.1684
▁belonging	-11.169
▁concentrated	-11.1693
▁simplifying	-11.17
▁agents	-11.1703
▁DG	-11.1704
▁ad	-11.1706
▁censure	-11.1715
▁imbalances	-11.1715
▁white	-11.1715
▁unified	-11.1716
▁establishes	-11.1716
▁selection	-11.1717
▁Freedoms	-11.1718
▁faces	-11.1719
▁37	-11.1721
▁manoeuvre	-11.1727
▁Board	-11.1727
▁zones	-11.1729
▁ma	-11.1743
▁deliberately	-11.1743
▁threaten	-11.1744
▁kill	-11.1745
▁Goals	-11.1752
ee	-11.1753
▁acquire	-11.1759
▁Area	-11.1765
determination	-11.1769
▁surplus	-11.1775
▁prevail	-11.1776
▁entrepreneurs	-11.1777
▁Sever	-11.1778
▁suppliers	-11.1782
ier	-11.1783
▁Balkan	-11.1784
▁Communities	-11.1789
▁deregulation	-11.179
▁defended	-11.1793
▁margin	-11.18
4-01	-11.1801
▁Laeken	-11.1801
▁rejecting	-11.1805
▁2002.	-11.181
▁weekend	-11.1815
▁acquired	-11.1819
▁medicine	-11.1822
▁venture	-11.1826
▁promotes	-11.1827
▁substantive	-11.1838
▁university	-11.1838
▁Iceland	-11.1838
▁Thanks	-11.1845
▁Working	-11.1846
▁ties	-11.1848
▁eligible	-11.1851
▁demonstrations	-11.1859
▁echo	-11.1867
ition	-11.1868
▁continuous	-11.187
▁sadly	-11.1872
▁station	-11.1873
▁coalition	-11.1876
▁feels	-11.1879
▁analyses	-11.1884
▁Muslim	-11.1885
▁Industrial	-11.1885
▁Washington	-11.1888
▁mobilisation	-11.1888
▁enhancing	-11.1889
▁sheep	-11.1889
▁painful	-11.1893
▁confine	-11.1896
▁ho	-11.1899
▁Frattini	-11.1901
▁Swoboda	-11.1901
▁fragile	-11.1901
▁Darfur	-11.1913
▁protein	-11.1913
▁supranational	-11.1914
▁SIS	-11.1915
▁backed	-11.1917
▁Ex	-11.1919
▁components	-11.1919
▁reconcile	-11.1921
▁intolerable	-11.1926
▁refrain	-11.1926
▁bananas	-11.1932
▁adhere	-11.1933
▁Freedom	-11.1935
▁Director	-11.1936
▁runs	-11.1937
▁famous	-11.1938
▁encourages	-11.1941
▁reassure	-11.1946
▁compare	-11.1946
▁Di	-11.1948
wi	-11.1955
▁arisen	-11.1955
&	-11.1963
▁macroeconomic	-11.1964
▁responded	-11.1967
▁tension	-11.1973
▁Political	-11.1976
▁circulation	-11.1976
▁postpone	-11.1982
▁Forum	-11.1983
▁Climate	-11.1989
▁approving	-11.1989
▁professionals	-11.199
▁Indian	-11.199
▁display	-11.1993
▁girls	-11.1994
▁Michel	-11.2001
▁fo	-11.2002
▁entails	-11.2003
▁holds	-11.2011
▁dare	-11.2012
▁Moscow	-11.2014
▁unsatisfactory	-11.2014
▁Anyone	-11.2015
▁derogations	-11.2021
▁consolidated	-11.2021
▁salaries	-11.2027
▁intense	-11.2027
▁momentum	-11.203
▁unite	-11.2037
▁Danube	-11.2039
▁earth	-11.204
▁stabilisation	-11.2041
▁pensioners	-11.2044
▁deprived	-11.2044
▁eliminating	-11.2052
▁diplomacy	-11.2052
4-00	-11.2052
▁Chair	-11.2052
▁tensions	-11.2055
q	-11.2062
▁owners	-11.2069
▁demonstrating	-11.2077
▁34	-11.208
▁seats	-11.2081
▁existed	-11.2082
▁EP	-11.2083
int	-11.2085
▁assumption	-11.209
▁cofinancing	-11.2091
▁located	-11.2091
▁tabling	-11.2091
▁wishing	-11.2096
▁Communication	-11.2103
▁rescue	-11.2103
▁packaging	-11.2103
▁entail	-11.2105
▁Paragraph	-11.2116
▁Organization	-11.2116
▁formulated	-11.212
▁socialist	-11.2124
▁detrimental	-11.2124
▁journey	-11.2126
à	-11.2128
▁Round	-11.2129
▁fulfilling	-11.213
▁seemed	-11.2134
▁3%	-11.2136
▁Regions	-11.2139
▁autonomous	-11.2147
▁prejudice	-11.2148
▁preserving	-11.2154
▁hoping	-11.2154
▁Vietnam	-11.2154
▁lawyers	-11.216
▁underlined	-11.2165
▁residents	-11.2175
▁Dr	-11.2175
▁cloning	-11.218
▁guidance	-11.218
▁harsh	-11.218
▁neutral	-11.218
▁reactions	-11.218
▁60%	-11.218
▁mines	-11.2183
▁mountain	-11.2184
▁revealed	-11.2185
right	-11.2185
▁undermining	-11.2193
▁guard	-11.2194
▁interpret	-11.2196
▁Part	-11.2202
▁Barnier	-11.2205
▁optimistic	-11.2206
▁25%	-11.2207
▁explanatory	-11.2218
▁sensitivity	-11.2218
▁ra	-11.2221
▁advocates	-11.2224
▁exemptions	-11.2226
▁Ha	-11.2227
▁Trans	-11.2231
▁ministerial	-11.2232
ell	-11.2234
tre	-11.2243
▁grown	-11.2249
▁depending	-11.2253
▁knew	-11.2257
▁airline	-11.2258
ff	-11.2263
▁worker	-11.2264
▁bridge	-11.227
▁Tuesday	-11.227
pat	-11.2271
▁4,	-11.2276
▁REACH	-11.2283
▁organising	-11.2283
▁shoulder	-11.2286
known	-11.2288
▁watch	-11.2288
▁knowing	-11.2289
▁definite	-11.2291
▁smooth	-11.2291
▁customers	-11.2292
▁Basque	-11.2296
▁Palacio	-11.2296
▁fishery	-11.2297
▁officially	-11.2297
▁blocked	-11.2297
▁offence	-11.2298
▁witness	-11.23
▁continuity	-11.2309
▁scene	-11.2309
▁ca	-11.2311
drew	-11.2313
▁indications	-11.2313
▁accountable	-11.232
lic	-11.2322
▁hypocrisy	-11.2322
▁worthwhile	-11.2322
▁subsidy	-11.2323
▁blow	-11.2323
▁gets	-11.2325
▁toys	-11.2326
▁listed	-11.2328
▁marking	-11.2337
▁bears	-11.2337
▁Equality	-11.2338
▁swiftly	-11.2342
▁insecurity	-11.2344
▁earthquake	-11.2348
▁Christmas	-11.2348
▁Poettering	-11.2348
▁suddenly	-11.2352
▁tariffs	-11.2358
▁settle	-11.2358
▁proactive	-11.2362
▁tourist	-11.2363
▁formed	-11.2366
▁learnt	-11.2371
tan	-11.2372
▁misleading	-11.2377
▁disappointing	-11.2377
▁selling	-11.238
▁surprising	-11.2382
▁noticed	-11.2384
▁newspaper	-11.2388
▁meaningful	-11.2388
operation	-11.2392
▁Haiti	-11.24
▁Bolkestein	-11.2401
▁issuing	-11.2401
▁vigilant	-11.2414
▁infringements	-11.2415
▁Concerning	-11.2415
▁objection	-11.2415
▁pursuit	-11.2427
▁prosecution	-11.244
▁senior	-11.244
▁attended	-11.2441
▁distortions	-11.2442
▁Has	-11.2445
▁delivery	-11.2448
▁compensate	-11.2448
▁contradict	-11.2453
▁caution	-11.2454
▁proves	-11.2455
▁frontiers	-11.2469
▁breaches	-11.2469
▁engagement	-11.2471
productive	-11.2471
▁distinguish	-11.2473
▁carriers	-11.2479
▁apologise	-11.248
▁arbitrary	-11.248
▁refusing	-11.248
▁scenario	-11.2481
▁judges	-11.2484
▁Albanian	-11.2485
▁College	-11.2493
▁capacities	-11.2493
cy	-11.2498
ze	-11.2503
▁reforming	-11.2504
▁gr	-11.2505
▁mercury	-11.2507
▁software	-11.2507
▁domain	-11.2507
▁tendency	-11.2507
▁mobilise	-11.2515
▁merits	-11.2521
▁Serbian	-11.2528
▁identifying	-11.2528
▁career	-11.253
▁definitions	-11.2533
▁summary	-11.2533
▁se	-11.254
▁advise	-11.2541
▁streets	-11.2541
▁expresses	-11.2551
▁gaps	-11.2552
▁operates	-11.2558
▁premature	-11.256
▁transportation	-11.2561
regulation	-11.2564
▁1,	-11.2565
▁ending	-11.2568
▁ECHO	-11.2573
▁injustice	-11.2573
▁propaganda	-11.2573
▁twelve	-11.2573
ld	-11.2575
▁seas	-11.2583
▁God	-11.2587
▁catastrophe	-11.2587
▁redundancies	-11.2587
▁Islands	-11.2587
▁3,	-11.2589
▁nationality	-11.2595
▁Gender	-11.26
▁moderate	-11.2601
▁awaiting	-11.2603
han	-11.2604
▁love	-11.261
▁scandalous	-11.2614
mer	-11.2621
▁restriction	-11.263
▁wholly	-11.2633
▁partial	-11.2634
ons	-11.2641
▁disability	-11.2641
▁Vi	-11.2642
▁Islam	-11.2661
▁condemning	-11.2667
▁complementary	-11.2668
▁opponents	-11.2668
▁fruitful	-11.2672
ship	-11.2675
▁Yugoslav	-11.2677
▁Fa	-11.2679
▁undermined	-11.2679
teroperability	-11.2681
▁deterioration	-11.2681
▁super	-11.2684
▁theory	-11.2684
▁jeopardise	-11.2689
▁advocated	-11.269
2/	-11.269
▁Mo	-11.2699
▁handle	-11.2712
▁lengthy	-11.2712
▁judgement	-11.2715
▁fill	-11.2715
▁counterfeiting	-11.2718
ec	-11.2721
▁devastating	-11.2721
▁excise	-11.2721
▁biotechnology	-11.2722
▁accepts	-11.2728
dis	-11.2736
▁weapon	-11.2738
▁officers	-11.2739
▁recover	-11.274
▁42	-11.2747
▁Much	-11.275
▁mutually	-11.2752
▁tolerate	-11.2757
▁III	-11.2758
▁mixed	-11.2759
▁Mugabe	-11.2762
▁prohibition	-11.2766
▁successes	-11.2766
▁yield	-11.2768
▁Pro	-11.277
▁Bulgarian	-11.277
▁redundant	-11.2776
▁Herzegovina	-11.278
▁allies	-11.278
▁realities	-11.2783
▁Surely	-11.279
▁virtue	-11.279
▁alleged	-11.2798
▁structured	-11.2803
▁contradictory	-11.2803
▁Un	-11.2804
▁sooner	-11.2806
▁5%	-11.2807
pre	-11.2815
▁automatic	-11.2817
▁inspectors	-11.2817
▁permits	-11.2822
▁eat	-11.2822
4-02	-11.2831
▁attract	-11.2832
▁dates	-11.2842
▁Small	-11.2844
▁indigenous	-11.2844
▁evil	-11.2845
▁bigger	-11.2845
▁financially	-11.2847
▁pull	-11.285
▁thoughts	-11.2855
▁Next	-11.2858
▁academic	-11.2858
▁privileged	-11.2862
▁judgments	-11.2863
▁Bo	-11.2868
▁constituents	-11.2868
▁centuries	-11.2872
▁Articles	-11.2873
▁authors	-11.2881
▁Southern	-11.2886
▁geared	-11.2891
comprehensible	-11.2892
▁reformed	-11.2894
▁frequent	-11.2894
back	-11.2903
Europe	-11.2904
ight	-11.291
▁inclusive	-11.2914
izing	-11.2934
ger	-11.2935
/2006	-11.294
disproportionate	-11.294
▁teaching	-11.2947
▁suspend	-11.2949
▁attitudes	-11.2953
▁li	-11.2953
▁alliance	-11.296
▁profession	-11.2962
▁coins	-11.2967
▁finger	-11.2969
▁rhetoric	-11.2971
cur	-11.2975
25	-11.2978
▁organs	-11.2981
▁psychological	-11.2983
▁cold	-11.2985
▁killing	-11.2987
▁seriousness	-11.3004
▁assert	-11.3007
▁Confedera	-11.3011
▁Natura	-11.3011
▁memory	-11.3011
▁proportionality	-11.3011
▁ends	-11.3025
▁belongs	-11.3027
▁alter	-11.3028
▁robust	-11.3039
▁acute	-11.3039
▁alert	-11.304
▁assent	-11.3041
▁5.	-11.3047
▁absent	-11.3053
▁papers	-11.3055
▁sentences	-11.3055
▁departments	-11.3056
▁costly	-11.3057
▁conventional	-11.3063
ET	-11.3065
mit	-11.3068
▁discovered	-11.3074
being	-11.3075
▁decrease	-11.3076
▁incompatible	-11.3079
ator	-11.308
▁vitally	-11.308
▁restricting	-11.3081
▁slowly	-11.3082
▁transformation	-11.3083
law	-11.3086
▁excessively	-11.3088
▁immense	-11.3089
▁Questions	-11.3094
▁Cotonou	-11.3095
▁adapting	-11.3103
▁wanting	-11.3108
▁tested	-11.3109
▁epidemic	-11.3109
▁38	-11.311
makers	-11.3113
▁predict	-11.3114
1999	-11.3114
▁Conservative	-11.3115
▁Su	-11.3118
▁deliberations	-11.3121
▁allowances	-11.3124
▁bid	-11.3143
▁expecting	-11.3147
/2003	-11.315
▁hitherto	-11.3152
▁Aid	-11.3164
▁certification	-11.3166
▁minimal	-11.3166
▁newspapers	-11.3166
▁1991	-11.317
▁resist	-11.3171
▁pain	-11.3173
▁Accordingly	-11.3174
▁schedule	-11.3175
▁textiles	-11.3176
▁Azerbaijan	-11.318
▁liberty	-11.318
▁exceed	-11.318
▁reception	-11.3181
▁differing	-11.3198
▁preferences	-11.3207
▁books	-11.3208
▁Together	-11.3208
▁contamination	-11.3208
▁reunification	-11.3208
▁conditional	-11.3209
▁agreeing	-11.3213
▁calm	-11.3217
▁ideology	-11.3223
▁wood	-11.3224
▁43	-11.3226
ay	-11.3226
▁awarded	-11.323
▁ridiculous	-11.3237
▁returning	-11.3237
▁cheaper	-11.3241
▁film	-11.3244
▁lift	-11.3246
▁warn	-11.3247
ments	-11.3249
▁imperialist	-11.325
▁Finance	-11.3251
▁description	-11.3251
▁newly	-11.3252
▁weakness	-11.3266
▁plus	-11.3267
▁allocate	-11.3275
▁charged	-11.3278
▁70%	-11.328
▁continually	-11.3282
za	-11.3288
▁Sakharov	-11.3294
▁exempt	-11.3301
▁competitors	-11.3307
▁Fortunately	-11.3309
▁Turning	-11.3309
ris	-11.3312
unt	-11.3317
standing	-11.3318
▁tunnel	-11.3323
▁prostitution	-11.3323
ological	-11.3326
▁supporters	-11.3327
US	-11.3327
▁po	-11.3329
▁suit	-11.333
▁Putin	-11.3337
▁unclear	-11.3338
▁Norway	-11.3338
▁murdered	-11.3339
▁buying	-11.334
▁conceal	-11.3344
our	-11.3347
▁poses	-11.3351
▁user	-11.3354
▁transform	-11.3356
▁outline	-11.336
▁feelings	-11.3372
ko	-11.338
▁quantitative	-11.3381
▁liberalization	-11.3381
▁Go	-11.3386
ron	-11.3391
▁disarmament	-11.3395
▁recourse	-11.3395
▁Ad	-11.3396
▁inland	-11.3402
▁mentioning	-11.3402
▁site	-11.3402
▁trialogue	-11.341
▁classification	-11.341
▁Jean	-11.341
▁translated	-11.3415
▁affirm	-11.3421
▁cooperating	-11.3425
▁assumed	-11.3427
▁frank	-11.3434
▁revise	-11.3434
▁petitions	-11.3436
▁severely	-11.3437
▁eurozone	-11.3439
▁incapable	-11.3439
▁reputation	-11.3439
▁scourge	-11.3439
▁Mercosur	-11.344
▁Sport	-11.344
▁Ta	-11.3442
lin	-11.3445
▁bomb	-11.345
▁intent	-11.3451
▁anybody	-11.3454
▁1989	-11.3454
▁pending	-11.3455
▁voices	-11.3458
▁collected	-11.3461
▁countryside	-11.3463
ria	-11.3466
▁substitute	-11.3468
▁throw	-11.3469
ep	-11.3481
▁Chernobyl	-11.3483
▁impunity	-11.3483
▁viewpoint	-11.3487
▁aggressive	-11.3498
▁Seventh	-11.3498
▁laundering	-11.3499
▁formulate	-11.3508
▁recognized	-11.352
▁capabilities	-11.3527
▁gesture	-11.3527
▁qualitative	-11.3527
▁breaking	-11.3533
▁Posselt	-11.3542
▁drought	-11.3542
▁maternity	-11.3542
▁Media	-11.3542
▁retained	-11.3549
▁appropriately	-11.355
ever	-11.3552
▁drastic	-11.3556
▁Meanwhile	-11.3556
▁profitable	-11.3559
▁launching	-11.3562
▁forecasts	-11.3569
▁Whether	-11.3571
▁silent	-11.3571
▁prisons	-11.3575
▁fell	-11.3577
▁argued	-11.358
how	-11.358
hy	-11.3583
▁Further	-11.3586
▁pornography	-11.3586
▁promising	-11.3586
▁ensures	-11.3601
▁reinforcing	-11.3601
▁boundaries	-11.3601
▁0	-11.3606
▁precondition	-11.3611
▁handed	-11.3616
▁founding	-11.3622
own	-11.3622
▁stood	-11.3631
▁ingredients	-11.3631
▁suspect	-11.3633
▁Far	-11.3635
▁recommends	-11.3638
▁Equal	-11.3639
▁hearings	-11.3641
ified	-11.3641
▁limitations	-11.3641
▁UEN	-11.3646
▁CFP	-11.3646
den	-11.3647
▁techniques	-11.3656
▁capitalist	-11.3661
▁speaks	-11.3662
40	-11.3664
▁mainstreaming	-11.3666
▁punished	-11.3667
▁7.	-11.3671
▁Personally	-11.3676
▁Te	-11.3676
▁participated	-11.3686
▁liberties	-11.369
▁finished	-11.369
▁technically	-11.369
▁Euratom	-11.3691
▁entirety	-11.3693
▁billions	-11.3699
▁artificial	-11.37
▁survey	-11.3701
▁Three	-11.3705
▁modes	-11.3712
▁fairer	-11.3718
▁Da	-11.3719
▁viewed	-11.372
▁likewise	-11.372
▁olive	-11.372
▁Customs	-11.3721
▁organisms	-11.3721
▁manufacture	-11.3729
▁simpler	-11.3731
▁overlook	-11.3742
▁prize	-11.3744
▁clothing	-11.375
tur	-11.3751
rk	-11.3755
log	-11.3756
ek	-11.3758
▁75	-11.3758
▁tens	-11.3762
▁crossing	-11.3765
▁soft	-11.377
▁fossil	-11.378
▁dimensions	-11.3785
▁commerce	-11.3785
▁90%	-11.3796
uc	-11.38
▁prohibited	-11.3803
▁tight	-11.3806
▁persist	-11.3807
port	-11.3809
▁sees	-11.3817
6/	-11.382
▁rigid	-11.3825
▁vaccination	-11.3826
▁ruled	-11.3829
/99	-11.3832
▁judged	-11.3836
▁debts	-11.3837
▁lifting	-11.3839
▁pushing	-11.3839
▁exposure	-11.3841
▁insisted	-11.3843
▁worry	-11.3844
▁k	-11.3844
▁highlighting	-11.3849
ib	-11.3854
par	-11.386
▁subscribe	-11.3862
▁mistaken	-11.3862
▁excellence	-11.3871
▁installations	-11.3875
▁settled	-11.3877
▁instances	-11.3879
ju	-11.3883
war	-11.3886
▁Watson	-11.3887
▁guiding	-11.3887
▁injured	-11.3887
▁abide	-11.3887
▁activists	-11.3889
▁ease	-11.3889
▁missed	-11.3894
ana	-11.3896
▁mothers	-11.3896
▁attempted	-11.3896
▁professions	-11.3897
▁measured	-11.3898
▁disagreement	-11.3901
▁entities	-11.3902
▁MEDA	-11.3902
▁Her	-11.3904
▁guided	-11.3909
▁2001.	-11.3909
▁destroying	-11.3911
▁anticipate	-11.3912
▁dismantling	-11.3917
▁conducting	-11.3923
▁hospital	-11.393
▁harmonising	-11.3932
▁viability	-11.3933
▁secretariat	-11.3933
building	-11.3938
▁threatens	-11.394
▁admitted	-11.3943
▁referendums	-11.3944
▁formation	-11.3946
▁Again	-11.3947
▁departure	-11.3948
Russia	-11.3956
▁hoc	-11.3957
▁guardian	-11.3964
month	-11.3971
▁vi	-11.3977
▁duration	-11.3979
date	-11.3982
▁discover	-11.3983
▁ineffective	-11.3983
▁underlines	-11.3983
▁confront	-11.3985
ny	-11.3987
▁600	-11.3995
▁mentions	-11.4004
▁separately	-11.4004
▁identical	-11.4009
▁relevance	-11.4009
▁advisory	-11.401
▁deemed	-11.4013
▁Conservatives	-11.4018
▁cautious	-11.4019
▁conscious	-11.4025
▁nice	-11.4025
▁adult	-11.4039
▁totalitarian	-11.404
▁opposing	-11.404
▁wrote	-11.404
▁Good	-11.404
▁Sixth	-11.4041
▁touched	-11.4041
▁accusations	-11.4042
▁Lu	-11.405
▁55	-11.4053
▁chose	-11.4054
▁requesting	-11.4055
▁distortion	-11.4055
▁hatred	-11.4056
4-03	-11.4056
▁informing	-11.4057
▁Foundation	-11.4071
▁austerity	-11.4071
▁100%	-11.4073
▁lobby	-11.4075
▁95	-11.4078
▁confronted	-11.408
▁bus	-11.4081
▁uncertain	-11.4086
▁striking	-11.4087
▁peripheral	-11.409
ki	-11.409
▁spreading	-11.4097
▁correspond	-11.4105
cent	-11.4107
6%	-11.4112
▁imbalance	-11.4113
▁diversification	-11.4118
▁supplied	-11.4118
▁veterinary	-11.4118
▁discriminatory	-11.4122
▁conferences	-11.4125
▁Global	-11.4133
▁Australia	-11.4134
▁Sarkozy	-11.4134
▁welcoming	-11.4134
▁vary	-11.4138
▁protests	-11.4138
▁Cor	-11.414
▁globalised	-11.4143
í	-11.4149
▁Network	-11.4149
▁dominant	-11.4149
▁precedence	-11.4149
▁blocking	-11.4159
▁unrealistic	-11.4165
rac	-11.4169
bit	-11.417
ire	-11.4171
▁partially	-11.4171
▁appreciated	-11.4172
▁chapters	-11.4172
▁somewhere	-11.4186
▁sends	-11.4187
▁Gulf	-11.4197
cing	-11.4198
board	-11.4205
du	-11.421
▁altogether	-11.4212
▁neo	-11.4212
▁attaches	-11.4215
▁Erika	-11.4229
▁letters	-11.4232
art	-11.4238
▁plain	-11.4238
▁translate	-11.4239
▁Cambodia	-11.424
▁website	-11.4244
▁1980	-11.4244
▁adjust	-11.4254
ham	-11.4254
▁parameters	-11.4256
▁pride	-11.426
▁emphasising	-11.4262
▁receives	-11.4271
tor	-11.4272
▁Support	-11.4275
▁exemplary	-11.4275
▁extradition	-11.4275
▁replacing	-11.4279
▁communist	-11.4281
▁thrust	-11.4291
▁coexistence	-11.4292
▁ILO	-11.4292
▁arm	-11.4294
7/	-11.4294
▁5,	-11.43
▁champion	-11.4307
▁deepening	-11.4317
▁precarious	-11.4323
▁decommissioning	-11.4326
cal	-11.4329
▁contents	-11.4332
▁sentenced	-11.4334
▁Gothenburg	-11.4339
▁applause	-11.4339
lan	-11.4348
▁perpetrators	-11.4355
▁independently	-11.4358
▁Per	-11.4362
▁plenty	-11.4371
▁transposed	-11.4374
▁replacement	-11.4376
▁proliferation	-11.4377
▁waiver	-11.4378
▁Taliban	-11.4387
▁impressive	-11.4387
▁Sahara	-11.4391
▁asset	-11.4395
ef	-11.4399
▁airspace	-11.4403
▁rigour	-11.4419
▁outbreak	-11.4423
▁industrialised	-11.4423
▁Slovenian	-11.4424
▁globally	-11.4424
▁anticipated	-11.4425
▁award	-11.4433
▁panel	-11.4437
▁reactors	-11.4439
▁asks	-11.4445
▁hinder	-11.4447
▁redress	-11.445
ile	-11.4451
▁racist	-11.4451
Maritime	-11.4457
▁facto	-11.446
▁Innovation	-11.4468
▁relaunch	-11.4468
▁perception	-11.4468
▁anyway	-11.447
▁Wallström	-11.4484
▁incidentally	-11.4484
▁forcing	-11.449
▁confined	-11.449
▁disappeared	-11.4495
▁Korean	-11.45
form	-11.4502
▁database	-11.4502
▁finds	-11.4502
▁flood	-11.4507
▁organ	-11.4512
▁Pack	-11.4517
▁attain	-11.4522
▁annex	-11.4523
▁additives	-11.4529
▁shut	-11.4532
▁phenomena	-11.4532
▁master	-11.4533
▁X	-11.4536
▁Reding	-11.4541
hold	-11.4552
▁announce	-11.4556
▁cultivation	-11.4565
▁migratory	-11.4565
▁restoring	-11.4565
▁typical	-11.4576
▁legislate	-11.4581
▁dark	-11.4582
▁shameful	-11.4585
▁collect	-11.4589
▁thinks	-11.4592
▁cap	-11.4595
▁exercising	-11.4598
▁preferential	-11.4598
3%	-11.4605
▁6.	-11.4605
▁notification	-11.4608
▁luck	-11.4612
▁secured	-11.4613
▁John	-11.4614
▁virus	-11.4614
▁repressive	-11.4614
▁vis	-11.4614
▁delivering	-11.4615
▁equipped	-11.4615
▁visits	-11.4616
▁confused	-11.4618
▁internally	-11.4621
▁permission	-11.4631
▁forth	-11.4632
▁mostly	-11.4633
▁safeguarded	-11.4639
▁prominent	-11.4647
▁cash	-11.4648
▁inability	-11.4652
ack	-11.4655
▁deeper	-11.4656
▁resume	-11.4658
▁Jerusalem	-11.4664
▁Sri	-11.4671
▁strongest	-11.4674
az	-11.4676
▁al	-11.4678
▁Initiative	-11.468
▁Israelis	-11.4683
▁stone	-11.4685
▁produces	-11.4687
▁deliberate	-11.4691
▁Johannesburg	-11.4697
▁currencies	-11.4697
▁unresolved	-11.4697
▁accompanying	-11.4698
▁taxpayer	-11.4701
▁counterfeit	-11.4701
▁exceptionally	-11.4713
aries	-11.4714
2010	-11.4723
▁exercised	-11.4733
▁Have	-11.4736
▁disadvantages	-11.4736
national	-11.4737
▁rape	-11.4742
are	-11.4744
▁witnessing	-11.4745
▁paramount	-11.4746
▁Somalia	-11.4746
ina	-11.4749
▁deposit	-11.4753
▁speedy	-11.4758
▁linking	-11.4758
▁privilege	-11.4762
▁brain	-11.4763
▁harassment	-11.4763
▁spot	-11.4766
▁compliment	-11.4767
▁screening	-11.4771
▁distort	-11.4775
▁England	-11.478
▁Monitoring	-11.478
▁Eurojust	-11.478
▁15%	-11.4783
▁aquaculture	-11.4796
▁mining	-11.4796
▁motivated	-11.4799
▁th	-11.4799
▁ratio	-11.4807
▁spare	-11.4808
▁Change	-11.4813
▁expanding	-11.4815
pproval	-11.4815
▁44	-11.4824
work	-11.4825
▁restored	-11.4829
▁envisage	-11.483
▁purchasing	-11.483
▁upheld	-11.483
▁blue	-11.483
▁na	-11.4834
▁promptly	-11.4837
▁teams	-11.4838
▁65	-11.4839
▁exceeded	-11.484
▁Caribbean	-11.4847
▁EDF	-11.4847
▁dependency	-11.4847
▁assurances	-11.4847
▁specialist	-11.4848
▁submitting	-11.4848
▁Lomé	-11.4863
▁emphatically	-11.4863
▁adjourned	-11.4864
sen	-11.4867
▁complying	-11.4868
▁investigated	-11.4873
▁lived	-11.4873
▁processed	-11.4876
▁eliminated	-11.4878
▁Nobody	-11.488
▁salary	-11.488
▁Environmental	-11.4881
▁crop	-11.4886
▁assisting	-11.4888
▁successive	-11.4891
▁modernise	-11.4894
entrepreneurship	-11.4896
▁theme	-11.4896
▁signatures	-11.4903
▁marginal	-11.4909
▁reciprocity	-11.4914
▁stipulates	-11.4918
08	-11.4927
▁wisdom	-11.4931
▁optimism	-11.4932
▁pushed	-11.4936
▁relocation	-11.4937
▁stabilise	-11.4943
▁Gu	-11.4945
ration	-11.4948
▁Jarzembowski	-11.4948
▁entity	-11.4948
▁alive	-11.4949
▁encounter	-11.4957
speed	-11.4957
class	-11.4958
▁inherent	-11.496
▁Roth	-11.4964
▁incorporating	-11.4965
▁Erasmus	-11.4965
down	-11.4965
▁Anti	-11.4969
▁pressures	-11.4977
ties	-11.4981
▁Corbett	-11.4982
▁presidencies	-11.4982
▁unification	-11.4984
▁circle	-11.4988
▁creativity	-11.4999
▁regain	-11.4999
▁breast	-11.4999
▁mouth	-11.5005
long	-11.5008
▁cruel	-11.5016
▁duly	-11.5019
▁Lo	-11.502
east	-11.5027
▁Oomen	-11.5033
▁deployment	-11.5034
▁complain	-11.5034
▁Very	-11.5035
ys	-11.5037
▁endeavours	-11.504
▁street	-11.504
▁barrier	-11.504
▁COM	-11.5046
▁anxious	-11.505
▁afterwards	-11.505
▁curb	-11.5051
▁gaining	-11.5054
▁vessel	-11.5057
▁dollar	-11.5058
liberal	-11.506
▁copy	-11.5067
▁elite	-11.5067
▁oppression	-11.5068
▁owing	-11.5068
▁Unless	-11.5068
▁lacks	-11.507
▁affordable	-11.507
▁commission	-11.5072
▁benefiting	-11.5073
J	-11.5077
ang	-11.5078
▁surface	-11.5084
▁Japanese	-11.5085
▁persistent	-11.5085
▁250	-11.5087
▁passive	-11.5088
▁2%	-11.5094
oriented	-11.5094
▁alarm	-11.5099
▁arrival	-11.5102
▁deficiencies	-11.5102
▁insofar	-11.5102
▁142)	-11.5102
▁sanction	-11.5109
▁occurs	-11.5112
▁wasted	-11.5113
▁records	-11.5113
▁servants	-11.5118
▁Sunday	-11.5119
▁TV	-11.512
▁confrontation	-11.5124
lia	-11.5132
▁splendid	-11.5136
▁Nothing	-11.5136
▁simultaneously	-11.5138
▁utterly	-11.514
▁39	-11.5148
▁journalist	-11.5149
▁sporting	-11.515
▁par	-11.515
/2005	-11.5151
▁Nuclear	-11.5153
▁hypocritical	-11.5153
▁trials	-11.5158
▁boats	-11.5158
▁fairness	-11.5165
▁Besides	-11.5171
▁PHARE	-11.5171
▁1998.	-11.5174
▁divisions	-11.5178
▁benefited	-11.5184
▁excess	-11.5186
▁gains	-11.5188
▁incorrect	-11.52
ert	-11.5203
▁prosperous	-11.5206
▁Ferrero	-11.5206
▁obligatory	-11.5206
▁thrown	-11.5208
▁inspired	-11.5209
▁opens	-11.5211
▁margins	-11.5212
looking	-11.5216
▁humane	-11.5218
▁innovations	-11.522
▁radiation	-11.5223
▁standardisation	-11.5227
▁suggesting	-11.5231
▁appoint	-11.5237
▁emergence	-11.5241
▁l	-11.5241
▁EGF	-11.5244
▁unlikely	-11.5249
▁protectionist	-11.525
▁Games	-11.5258
▁prohibit	-11.5259
RA	-11.5269
▁alike	-11.527
▁conversion	-11.5276
ip	-11.5287
▁command	-11.5293
▁restoration	-11.5293
▁recruitment	-11.5293
▁chances	-11.5307
Ruijten	-11.5311
▁Vitorino	-11.5311
▁managers	-11.5313
▁weaker	-11.5319
gr	-11.5319
▁Pre	-11.5322
▁cow	-11.5326
▁rehabilitation	-11.5328
▁machinery	-11.5328
▁ASEAN	-11.5329
▁Ne	-11.5336
▁sharp	-11.534
▁store	-11.5341
▁smoke	-11.5345
▁alleviate	-11.5346
▁evaluating	-11.5346
▁straightforward	-11.5346
▁thirty	-11.5346
▁overcoming	-11.5346
▁music	-11.5346
▁proportionate	-11.5347
4%	-11.5348
▁Hu	-11.5353
▁channel	-11.5355
cla	-11.5363
▁verify	-11.5364
▁introduces	-11.5364
▁coverage	-11.5366
win	-11.5367
▁bo	-11.5368
▁updated	-11.5371
▁Cypriot	-11.5374
▁120	-11.5375
made	-11.538
▁Po	-11.5381
▁evolution	-11.5381
▁decentralised	-11.5382
▁cornerstone	-11.5391
table	-11.5398
▁occupational	-11.5409
▁houses	-11.5416
▁shipbuilding	-11.5417
▁vigorously	-11.5421
▁lawyer	-11.5427
▁politician	-11.5427
▁Armenia	-11.5427
▁lo	-11.5428
▁cards	-11.5434
Waldner	-11.5434
▁pricing	-11.5434
gue	-11.5435
▁Spring	-11.5435
▁disappearance	-11.5435
▁dramatically	-11.5435
▁imprisoned	-11.5436
▁damaged	-11.5442
▁h	-11.5444
▁render	-11.5445
sided	-11.5451
▁Pacific	-11.5452
▁navigation	-11.5453
▁pure	-11.5468
▁Annual	-11.547
▁classes	-11.5473
▁neglected	-11.5477
▁lifted	-11.5481
▁denounce	-11.5483
+	-11.5484
▁Liikanen	-11.5488
▁incredibly	-11.5488
▁uranium	-11.5488
▁tri	-11.549
run	-11.5491
gram	-11.5499
▁nationalism	-11.5502
▁multiple	-11.5506
▁Chad	-11.5506
▁evaluated	-11.5517
▁cure	-11.552
▁democrats	-11.5521
▁risen	-11.5523
▁prosecutor	-11.5524
Bendit	-11.5524
wo	-11.5525
7%	-11.5525
lar	-11.5528
▁bombing	-11.5539
▁smuggling	-11.5542
▁Sometimes	-11.5542
▁En	-11.5543
▁assistants	-11.5545
▁signature	-11.5553
▁retail	-11.5559
▁Cohn	-11.556
▁ignoring	-11.556
▁Costa	-11.556
▁TACIS	-11.556
▁fundamentalism	-11.5564
▁intensify	-11.5566
ear	-11.5566
▁selected	-11.5568
):	-11.557
▁Lukashenko	-11.5578
▁accommodate	-11.5578
▁hidden	-11.5578
▁adults	-11.558
8%	-11.5582
▁defeat	-11.5588
▁allegations	-11.5591
▁individually	-11.5595
▁Cancún	-11.5596
▁Lehne	-11.5596
▁unjustified	-11.5596
▁Dis	-11.5601
▁Up	-11.5602
fu	-11.561
▁ELDR	-11.5614
▁challenging	-11.5614
5-04	-11.5615
▁consulting	-11.5618
ast	-11.562
▁pave	-11.5627
▁seize	-11.5628
▁GM	-11.5628
▁sustain	-11.5629
▁saved	-11.5631
minded	-11.5631
▁wild	-11.5632
▁League	-11.5632
▁portfolio	-11.5632
▁dominated	-11.5636
gent	-11.5636
▁behave	-11.5645
▁checked	-11.5647
▁suicide	-11.565
nu	-11.5651
▁goodwill	-11.5652
▁abolishing	-11.5653
umb	-11.5659
▁settlements	-11.5662
▁Non	-11.5662
▁camp	-11.5663
▁loud	-11.5663
(3)	-11.5666
▁Berlusconi	-11.5669
▁Water	-11.5669
▁completing	-11.5669
▁frustration	-11.5669
▁horse	-11.5669
▁workable	-11.5669
▁page	-11.5671
▁observer	-11.5686
▁quiet	-11.5687
▁grass	-11.5693
▁tone	-11.5694
▁score	-11.5706
▁ro	-11.5707
▁bans	-11.5707
rit	-11.5709
▁specify	-11.5711
▁acknowledges	-11.5718
▁miss	-11.572
▁beautiful	-11.5724
▁contempt	-11.5724
▁millennium	-11.5724
▁Workers	-11.5725
9/	-11.5726
▁700	-11.5726
▁perceived	-11.5726
ue	-11.573
▁fines	-11.5741
▁Progress	-11.5741
▁poultry	-11.5742
▁broadcast	-11.5747
▁maintains	-11.5748
▁stipulated	-11.5749
hand	-11.575
▁celebrate	-11.5755
▁Socrates	-11.576
▁retention	-11.576
▁conservative	-11.5761
▁trained	-11.5762
▁forgetting	-11.5763
▁coup	-11.5765
▁reasonably	-11.5766
▁hot	-11.5777
▁advocating	-11.5779
▁ethics	-11.5779
▁deadlock	-11.5779
▁selective	-11.5779
▁concerted	-11.5781
point	-11.5783
▁insult	-11.5785
ending	-11.5795
▁consolidating	-11.5797
▁dying	-11.5798
ening	-11.58
▁fees	-11.5801
▁disturbing	-11.5805
▁permanently	-11.5811
▁distinct	-11.5812
▁sun	-11.5813
▁forefront	-11.5816
▁devices	-11.5824
▁Mann	-11.5825
▁suspected	-11.5826
▁tender	-11.5829
▁Chile	-11.5833
▁Enlargement	-11.5834
▁dubious	-11.5834
▁hygiene	-11.5834
▁imprisonment	-11.5834
▁GSP	-11.5835
▁approaching	-11.5837
▁obstruct	-11.5846
▁Böge	-11.5853
▁striving	-11.5853
▁weather	-11.5853
▁admission	-11.5853
▁contractual	-11.5854
▁backwards	-11.5855
▁decides	-11.5865
▁reiterated	-11.5872
▁occurring	-11.5872
▁vegetables	-11.5875
lve	-11.5876
▁kilometres	-11.5878
carbon	-11.5882
▁strengthens	-11.5883
▁piracy	-11.589
▁gallery	-11.589
▁smart	-11.589
▁flying	-11.5901
▁holiday	-11.5904
▁Tibetan	-11.5906
▁counting	-11.5908
van	-11.5912
▁Tak	-11.5919
▁preserved	-11.5925
▁eve	-11.5925
▁postponement	-11.5929
▁formulation	-11.5929
▁Belarusian	-11.5929
▁da	-11.5932
▁confirmation	-11.5933
ya	-11.5942
50	-11.5943
▁Guantánamo	-11.5946
▁assuming	-11.5946
▁draws	-11.5948
ah	-11.5948
▁stepping	-11.595
ai	-11.5951
▁harder	-11.5955
▁vegetable	-11.5961
▁passport	-11.5962
▁treating	-11.5964
▁Burmese	-11.5965
▁urging	-11.5965
▁timing	-11.5965
▁imposition	-11.5965
load	-11.5968
▁7,	-11.5968
▁transported	-11.5972
▁accelerate	-11.5978
▁spell	-11.5984
▁prevents	-11.5984
▁cereals	-11.5989
▁explaining	-11.5989
mar	-11.5989
▁Scientific	-11.6002
▁competing	-11.6002
▁embrace	-11.6002
shop	-11.6003
▁overview	-11.6004
▁exporting	-11.6009
▁49	-11.6021
▁incurred	-11.6021
▁derive	-11.6022
▁centralised	-11.6026
▁codes	-11.6035
▁punish	-11.6035
▁claiming	-11.6037
▁conform	-11.6039
▁gambling	-11.604
▁fortunately	-11.6044
▁male	-11.6044
ren	-11.6048
▁disrupt	-11.6053
▁800	-11.6056
▁ultra	-11.6059
▁replied	-11.6059
▁studied	-11.6059
▁unequal	-11.6059
▁underestimate	-11.6073
▁frontier	-11.6078
▁Work	-11.6081
▁communautaire	-11.6097
▁incredible	-11.6097
▁brave	-11.6097
▁breakthrough	-11.6097
▁Barón	-11.6097
▁validity	-11.61
▁summits	-11.6103
▁IT	-11.6107
▁contradictions	-11.611
active	-11.6112
▁landscape	-11.6116
▁vice	-11.6117
▁Pen	-11.612
▁Com	-11.6133
▁Agricultural	-11.6135
▁scarcely	-11.6138
▁46	-11.6146
▁corrected	-11.6148
▁Ni	-11.6148
▁47	-11.615
▁repeating	-11.6152
▁chaos	-11.6154
▁eradication	-11.6154
▁stimulating	-11.6154
▁Lamy	-11.6154
▁liable	-11.6156
medi	-11.6156
▁catches	-11.6158
▁deployed	-11.6161
car	-11.6165
▁unambiguous	-11.6168
▁expanded	-11.6169
ology	-11.6169
▁modification	-11.6171
▁meal	-11.6173
▁window	-11.6174
▁carries	-11.6174
▁Accession	-11.6175
fa	-11.618
aw	-11.6191
—	-11.6193
▁lobbyists	-11.6193
▁undermines	-11.6194
▁pointless	-11.6195
▁provisional	-11.62
▁analysed	-11.6202
▁shocking	-11.6203
▁dictator	-11.621
)]	-11.6212
▁Harbour	-11.6212
▁lorries	-11.6212
▁Section	-11.6212
▁Sh	-11.6216
▁encountered	-11.6221
▁Men	-11.6224
▁ruin	-11.6224
▁unilaterally	-11.6225
▁radically	-11.623
ok	-11.623
▁Opportunities	-11.6231
▁Scottish	-11.6231
▁PNR	-11.6232
▁mergers	-11.6243
▁weakened	-11.6245
▁fatal	-11.6249
▁prevailing	-11.625
▁penal	-11.625
▁timber	-11.625
▁detained	-11.6252
▁Mu	-11.6258
▁capitalism	-11.6259
▁legislators	-11.6261
▁eradicate	-11.6265
▁41	-11.6266
▁proving	-11.627
atory	-11.6277
lit	-11.6278
▁allowance	-11.628
▁underway	-11.6284
▁reserved	-11.6286
▁Russians	-11.6286
▁neoliberal	-11.6289
▁barely	-11.6291
uff	-11.6297
▁corrupt	-11.6308
▁Thessaloniki	-11.6309
▁compatibility	-11.6309
▁replies	-11.6309
▁visibility	-11.6309
▁serving	-11.6311
▁Whatever	-11.6313
▁havens	-11.632
▁federalist	-11.6322
▁quo	-11.6323
▁coincide	-11.6328
▁infection	-11.6328
▁walk	-11.6328
▁internet	-11.6328
▁Stand	-11.6329
▁applicants	-11.633
▁Agreements	-11.6334
▁sick	-11.6335
▁1997.	-11.6335
▁minimise	-11.6338
▁Bangemann	-11.6348
▁illness	-11.6349
▁Ab	-11.6359
▁poorly	-11.6364
▁Professor	-11.6367
▁mankind	-11.6367
▁temptation	-11.6367
▁undemocratic	-11.6368
▁submission	-11.6368
▁calculated	-11.6369
▁Pe	-11.637
▁occupying	-11.6375
▁Instrument	-11.6387
▁Madeira	-11.6387
▁aggression	-11.6387
▁ascertain	-11.6387
▁tune	-11.6387
▁Statement	-11.6391
▁driver	-11.6391
▁seal	-11.6393
▁begins	-11.6399
DEM	-11.6399
ey	-11.6399
▁Regulations	-11.6403
▁underpin	-11.6406
▁roadmap	-11.6406
▁theoretical	-11.6406
▁accessibility	-11.6408
▁unknown	-11.6408
▁enormously	-11.6413
▁flags	-11.642
▁Crespo	-11.6426
▁Ministry	-11.6426
▁comparative	-11.6426
▁Pi	-11.6431
▁honesty	-11.6433
party	-11.6434
▁attacked	-11.6434
2%	-11.6439
▁deepen	-11.6443
▁chocolate	-11.6446
▁readiness	-11.6446
▁taught	-11.6446
▁clarifying	-11.6447
▁Muslims	-11.6452
▁Rehn	-11.6465
▁phasing	-11.6465
tle	-11.6466
▁appearance	-11.6468
▁proceeding	-11.647
mouth	-11.6478
▁Consumers	-11.648
▁river	-11.648
▁realize	-11.6481
▁bloc	-11.6484
▁Executive	-11.6485
▁analysing	-11.6485
▁drain	-11.6485
▁secrecy	-11.6485
▁geopolitical	-11.6485
ifying	-11.6486
▁Right	-11.6486
▁loan	-11.6486
▁committing	-11.6486
▁Everything	-11.6487
▁2020.	-11.6497
▁stressing	-11.6507
▁Swiss	-11.6525
▁slavery	-11.6525
developed	-11.6531
▁derived	-11.6534
▁estimate	-11.654
▁rejects	-11.6544
▁Rwanda	-11.6545
▁distant	-11.6545
gar	-11.6551
▁Serbs	-11.6554
▁legality	-11.6556
2009	-11.6557
▁capita	-11.6563
▁Administration	-11.6565
▁6,	-11.6568
ory	-11.657
▁dictate	-11.657
11	-11.6571
▁diet	-11.658
▁Venezuela	-11.6581
▁flu	-11.6582
▁gather	-11.6584
life	-11.6584
▁Quartet	-11.6585
▁IND	-11.6585
▁tourists	-11.6585
▁convictions	-11.6588
▁shareholders	-11.6589
▁farmer	-11.6599
▁unusual	-11.6599
▁delete	-11.66
▁violate	-11.6601
▁diagnosis	-11.6604
▁herself	-11.6604
▁intolerance	-11.6604
▁offensive	-11.6604
▁architecture	-11.6605
▁quoted	-11.6605
establish	-11.6608
tern	-11.6616
▁illustrates	-11.662
▁refunds	-11.6622
▁ha	-11.6622
▁Which	-11.6625
▁discourage	-11.6625
▁horror	-11.6625
▁equity	-11.6625
▁questionable	-11.6626
▁reward	-11.6629
▁expulsion	-11.6645
▁tries	-11.6647
house	-11.6659
▁voiced	-11.666
▁doctor	-11.6661
matic	-11.6662
sceptic	-11.6665
▁fabric	-11.6665
▁SME	-11.6667
▁CE	-11.6668
▁Independent	-11.667
lle	-11.6674
▁executions	-11.6675
▁mad	-11.6676
ivity	-11.6677
▁ecosystems	-11.6683
▁exported	-11.6684
▁embark	-11.6685
▁imminent	-11.6685
▁legislature	-11.6685
▁Sadly	-11.6685
▁readmission	-11.6685
▁interaction	-11.6686
▁countless	-11.6686
▁council	-11.6687
▁denying	-11.6692
▁fathers	-11.6698
▁understands	-11.6699
▁Catholic	-11.6705
▁Jacques	-11.6705
▁pretty	-11.6705
▁blocks	-11.6714
value	-11.6719
▁watching	-11.6724
▁Sharon	-11.6725
▁commodity	-11.6725
▁sceptical	-11.6725
▁artists	-11.6726
▁confidentiality	-11.6726
▁insisting	-11.6727
▁coordinator	-11.6728
terrorism	-11.6738
▁supportive	-11.6744
▁reviewing	-11.6745
▁imply	-11.6746
▁quarters	-11.6753
▁Ri	-11.6759
▁sixth	-11.676
▁honestly	-11.6764
▁reliability	-11.6766
▁standpoint	-11.6767
▁transaction	-11.6769
▁forecast	-11.6769
▁perpetrated	-11.6769
▁expects	-11.6771
▁grasp	-11.6778
air	-11.6779
▁indicating	-11.6786
▁condolences	-11.6794
minute	-11.6799
▁heat	-11.6805
▁patience	-11.6807
tomic	-11.681
▁corner	-11.6815
▁2001/	-11.6817
sighted	-11.6818
▁elect	-11.6821
▁dreadful	-11.6827
▁slogan	-11.6827
▁eligibility	-11.6827
▁peacekeeping	-11.6829
▁coin	-11.6832
▁fa	-11.6842
▁Barrot	-11.6848
▁extremism	-11.6848
▁milestone	-11.6848
▁blackmail	-11.6848
▁restraint	-11.6851
intensive	-11.6861
▁possess	-11.6862
▁Robert	-11.6868
▁antibiotics	-11.687
▁wines	-11.6871
proliferation	-11.6881
▁slight	-11.6887
▁Delegation	-11.6889
▁Kurds	-11.6889
▁earliest	-11.6889
▁secular	-11.6889
▁persecuted	-11.6891
19	-11.6892
▁2011.	-11.69
▁trip	-11.6903
▁desperate	-11.6904
▁counterparts	-11.6904
▁worries	-11.6909
▁passage	-11.6912
▁accord	-11.6913
regional	-11.6922
▁Air	-11.6922
▁cite	-11.6926
▁discretion	-11.693
▁incorporation	-11.693
SL	-11.6933
▁y	-11.694
fire	-11.6948
put	-11.695
▁lastly	-11.695
▁appeals	-11.695
▁dissemination	-11.6951
▁reluctant	-11.6951
▁responsibly	-11.6951
▁weakening	-11.6952
▁opted	-11.6954
hen	-11.6959
▁shop	-11.6963
▁Moroccan	-11.6972
▁failures	-11.6982
▁gl	-11.6987
▁fundamentalist	-11.6988
▁Cross	-11.6992
▁biometric	-11.6992
▁concentrating	-11.6992
▁excluding	-11.6992
▁ballot	-11.6993
We	-11.6993
▁defenders	-11.6995
▁designated	-11.6995
.5%	-11.6996
trade	-11.7003
uring	-11.7005
▁occurrence	-11.7013
4-04	-11.7013
▁duplication	-11.7014
▁nowhere	-11.7021
▁misuse	-11.7029
imp	-11.703
▁functional	-11.7032
▁remembered	-11.7034
▁illustrate	-11.7034
▁outlook	-11.7034
▁ceasefire	-11.7034
▁bitter	-11.7036
▁hospitals	-11.7037
▁preferable	-11.7038
let	-11.7039
▁damages	-11.7042
▁Algerian	-11.7044
▁David	-11.7055
▁Nepal	-11.7055
▁revising	-11.7055
▁lagging	-11.7055
▁leap	-11.7055
▁collectively	-11.7066
▁hamper	-11.7068
▁Ethiopia	-11.7072
▁Angola	-11.7072
▁turns	-11.7074
▁Competition	-11.7076
▁employee	-11.7081
▁intra	-11.7083
case	-11.7084
▁visiting	-11.7084
ik	-11.7088
▁reveals	-11.7088
▁List	-11.7088
▁explore	-11.7092
▁2015	-11.7096
jo	-11.7097
▁Fontaine	-11.7097
▁indicative	-11.7097
▁methodology	-11.7098
▁visitors	-11.7099
▁donation	-11.7103
▁roles	-11.7103
▁prop	-11.7108
▁regulators	-11.7109
▁distinguished	-11.711
▁somehow	-11.711
▁lobbying	-11.7113
▁IV	-11.7114
▁qua	-11.7117
▁prudent	-11.7118
▁forming	-11.7118
▁onwards	-11.712
▁possession	-11.7122
▁growers	-11.7124
▁pages	-11.7125
5/	-11.7125
▁shocked	-11.7126
▁trains	-11.7127
▁annually	-11.7133
▁embryos	-11.7133
▁unequivocal	-11.7134
▁symbols	-11.7135
▁fly	-11.7135
▁2013.	-11.7136
▁regrettably	-11.7139
▁unreasonable	-11.7139
▁mortality	-11.7139
▁honoured	-11.7139
▁extremists	-11.7143
▁specialised	-11.7149
▁authorise	-11.7157
▁harmony	-11.716
▁Children	-11.716
▁capability	-11.716
▁lending	-11.7162
tech	-11.7162
▁paint	-11.7163
lessly	-11.7173
▁?	-11.718
▁Technology	-11.7181
▁levy	-11.7181
▁shaping	-11.7181
▁overseas	-11.7181
▁refuses	-11.7192
▁Lanka	-11.7199
▁councils	-11.7201
chi	-11.7202
▁br	-11.7202
▁tragedies	-11.7203
▁engineering	-11.7206
▁8.	-11.7207
rat	-11.721
act	-11.7211
▁abused	-11.7213
▁vigorous	-11.7218
▁impartial	-11.7223
▁el	-11.7223
▁Bangladesh	-11.7224
▁stepped	-11.7228
▁deleted	-11.7229
/2004	-11.723
▁consist	-11.7231
▁square	-11.7234
▁authoritarian	-11.7235
▁frame	-11.7242
▁Business	-11.7244
▁McCreevy	-11.7245
▁Seville	-11.7245
▁chamber	-11.7245
▁equitable	-11.7245
▁seminar	-11.7245
▁bought	-11.7245
▁stamp	-11.7245
▁Annan	-11.7246
▁factories	-11.7248
▁engines	-11.7257
▁sudden	-11.7261
▁Take	-11.7274
▁connections	-11.7276
▁lesser	-11.7279
▁somebody	-11.7288
▁struggling	-11.7288
▁disgraceful	-11.729
▁shipyards	-11.7298
▁influenced	-11.7298
mail	-11.7304
▁labels	-11.7307
▁invasion	-11.7309
▁updating	-11.7309
▁colonial	-11.7312
ker	-11.7312
▁forgive	-11.7313
ret	-11.7313
▁resolutely	-11.7314
▁migrant	-11.7317
▁ring	-11.7318
▁sorts	-11.7321
▁detect	-11.7322
▁plea	-11.7323
▁approached	-11.7329
▁Alzheimer	-11.7331
▁Bonino	-11.7331
▁González	-11.7331
▁catastrophic	-11.7331
▁investigating	-11.7331
▁boosting	-11.7335
▁dollars	-11.7344
Community	-11.7345
▁organisational	-11.7345
▁favoured	-11.735
▁Delors	-11.7353
▁Florence	-11.7353
▁verification	-11.7353
▁pieces	-11.7353
▁sacrifice	-11.7355
▁tied	-11.7356
empt	-11.7358
▁reacted	-11.7358
▁arena	-11.7364
▁bombs	-11.7371
▁%.	-11.7371
▁Dimension	-11.7374
▁Malmström	-11.7374
▁congestion	-11.7374
▁nowadays	-11.7374
▁unlawful	-11.7374
▁grand	-11.7375
▁craft	-11.7375
▁feet	-11.7376
▁weakest	-11.7377
▁Sir	-11.7378
ude	-11.7383
▁resident	-11.7383
ify	-11.7388
▁penalise	-11.7391
ski	-11.7394
▁poison	-11.7396
▁Burundi	-11.7396
▁director	-11.7397
▁father	-11.7404
▁rush	-11.7409
▁performed	-11.7413
▁limitation	-11.7414
aside	-11.7415
▁Yemen	-11.7417
▁hesitate	-11.7417
▁stimulus	-11.7417
▁groundwater	-11.7418
▁neglect	-11.7419
▁shorter	-11.7425
▁Qu	-11.7427
democratic	-11.7432
▁flooding	-11.7434
▁upper	-11.7437
▁facilitation	-11.7439
▁biomass	-11.7439
▁institute	-11.7442
▁crew	-11.7448
1%	-11.7448
▁hostage	-11.7449
▁transferr	-11.745
ö	-11.7461
▁charging	-11.7461
▁nonsense	-11.7461
gel	-11.7461
▁supposedly	-11.7462
▁contaminated	-11.7462
▁box	-11.7463
▁tighten	-11.7466
▁Fi	-11.7473
▁checking	-11.7474
▁Applause	-11.7475
▁accede	-11.7478
▁devise	-11.7478
▁inconsistent	-11.7483
▁José	-11.7483
▁inspiration	-11.7483
▁Egyptian	-11.7484
▁mediation	-11.7485
▁thematic	-11.7486
▁vaccines	-11.7488
▁52	-11.7489
60	-11.7491
▁predecessor	-11.7491
▁storm	-11.7491
▁protective	-11.7497
▁reflecting	-11.7499
▁collecting	-11.7499
▁Category	-11.7505
▁Medina	-11.7505
▁choosing	-11.7505
▁engaging	-11.7505
▁interconnection	-11.7505
▁endanger	-11.7506
▁Cox	-11.7506
▁wheel	-11.7507
▁commendable	-11.7508
▁Bay	-11.7513
▁adds	-11.7514
▁reveal	-11.7515
track	-11.752
▁None	-11.7525
▁WHO	-11.7527
▁warnings	-11.7533
▁advised	-11.7536
▁attending	-11.7537
▁electrical	-11.7538
▁Ten	-11.7542
▁1996.	-11.7545
▁religions	-11.7548
è	-11.7549
▁Arafat	-11.7549
▁controversy	-11.7549
▁divorce	-11.7549
▁breeding	-11.7553
▁credits	-11.7555
]	-11.7557
▁Red	-11.7561
with	-11.7565
▁Azores	-11.7571
▁neutrality	-11.7572
▁mu	-11.7573
▁Cypriots	-11.7581
water	-11.7585
▁beg	-11.7592
▁headings	-11.7592
▁Wogau	-11.7593
▁reciprocal	-11.7593
▁brand	-11.7593
▁arrests	-11.7598
INI	-11.7599
▁ball	-11.7604
lk	-11.7604
▁legislator	-11.7606
East	-11.7608
▁enemy	-11.7615
▁harvest	-11.7615
▁Mon	-11.7622
financing	-11.7628
decision	-11.7629
▁offset	-11.7631
▁Jordan	-11.7637
▁Kazakhstan	-11.7637
▁Velzen	-11.7637
▁cancellation	-11.7637
▁75%	-11.7638
▁rarely	-11.7648
▁gear	-11.7651
▁Ch	-11.7656
▁disgrace	-11.7657
▁Saudi	-11.7659
▁childcare	-11.766
▁engine	-11.7672
▁personality	-11.7672
▁traditionally	-11.7675
▁Lulling	-11.7681
▁drift	-11.7681
▁Management	-11.7681
▁capture	-11.7682
▁misery	-11.7682
▁resignation	-11.7683
▁lifestyle	-11.7683
▁instructions	-11.7684
2002	-11.7686
▁mar	-11.7687
EN	-11.7689
▁cell	-11.7693
▁shock	-11.7694
▁birds	-11.7695
nce	-11.7698
▁qualify	-11.7704
▁Rio	-11.7707
▁km	-11.7708
not	-11.771
▁experiments	-11.7711
▁preconditions	-11.7711
▁extends	-11.7717
▁themes	-11.7718
AIDS	-11.7719
▁Governments	-11.7719
▁1.5	-11.7722
▁stretch	-11.7726
▁auspices	-11.7726
▁licensing	-11.7726
▁Belgrade	-11.7726
▁classified	-11.7726
▁uncontrolled	-11.7726
▁breakdown	-11.7727
▁illnesses	-11.7728
▁foreseen	-11.7728
ong	-11.7731
ulation	-11.7732
▁rebuild	-11.7737
▁Fe	-11.7738
▁overlooked	-11.7739
press	-11.774
▁displayed	-11.7741
yn	-11.7742
▁refuge	-11.7744
▁counts	-11.7744
▁sessions	-11.7746
▁Tribunal	-11.7749
▁feasibility	-11.7749
▁Product	-11.7749
▁packages	-11.7751
▁polluter	-11.776
▁Certain	-11.7766
▁Lithuanian	-11.7767
▁assigned	-11.777
▁Byrne	-11.7771
▁LIFE	-11.7771
▁decree	-11.7771
▁ozone	-11.7771
▁slip	-11.7774
▁contracting	-11.7777
head	-11.7782
▁Countries	-11.7794
▁GNP	-11.7794
▁Merkel	-11.7794
▁varied	-11.7794
▁eating	-11.7794
▁generating	-11.7796
▁51	-11.7803
▁student	-11.7805
BG	-11.7807
▁Mandelson	-11.7816
▁verdict	-11.7816
oli	-11.7816
▁conformity	-11.7817
▁deeds	-11.7817
▁clubs	-11.7819
▁Fo	-11.7823
fold	-11.7824
▁8,	-11.7825
▁accorded	-11.7825
▁premium	-11.7828
▁Oostlander	-11.7839
▁arguing	-11.7839
▁atrocities	-11.7839
▁dynamism	-11.7839
▁allocating	-11.7839
▁tongue	-11.7839
rib	-11.784
▁realisation	-11.784
▁certificates	-11.7845
▁Looking	-11.7845
▁smoothly	-11.7848
▁calculation	-11.7851
▁suited	-11.7852
▁prioritise	-11.7856
▁tuberculosis	-11.7861
▁fragmentation	-11.7862
▁factory	-11.7866
▁53	-11.7877
▁starts	-11.7879
▁Cologne	-11.7884
gy	-11.7886
efficient	-11.7888
▁entrusted	-11.7888
▁successor	-11.7891
▁adhered	-11.7893
▁province	-11.7896
▁privileges	-11.7901
▁eleven	-11.7906
▁Chechen	-11.7907
▁aforementioned	-11.7907
▁broadband	-11.7907
▁measuring	-11.7907
▁generic	-11.7907
▁readily	-11.7908
ink	-11.7908
▁games	-11.7909
▁interpreters	-11.7909
▁Wall	-11.7909
▁desperately	-11.7913
ari	-11.7914
▁fostering	-11.7917
light	-11.7918
6-00	-11.7921
▁Mulder	-11.793
▁convenience	-11.793
▁cotton	-11.793
▁rectify	-11.793
▁negotiators	-11.7938
ium	-11.794
▁2000/	-11.7943
▁gathering	-11.7944
development	-11.7945
▁villages	-11.7946
ying	-11.7952
▁Society	-11.7953
▁petrol	-11.7953
▁statutory	-11.7953
▁heed	-11.7953
tter	-11.7954
▁congratulated	-11.7957
▁unequivocally	-11.7959
▁spheres	-11.796
▁manufactured	-11.796
▁admittedly	-11.7961
ua	-11.7961
social	-11.7968
▁pollutants	-11.7972
▁Uzbekistan	-11.7976
▁college	-11.7976
▁fifty	-11.7976
▁harmonious	-11.7976
▁headquarters	-11.7976
▁referenda	-11.7976
take	-11.7985
/2008	-11.7986
9%	-11.7986
▁decisively	-11.7988
▁colour	-11.7989
▁operator	-11.7989
road	-11.7991
▁upset	-11.7995
13	-11.7995
▁Inquiry	-11.7999
▁Prestige	-11.7999
▁arriving	-11.7999
▁Rothley	-11.7999
▁EPP	-11.8
▁besides	-11.8
▁reinforcement	-11.8003
▁Equally	-11.8007
▁premiums	-11.801
new	-11.8011
▁alia	-11.8012
▁Sch	-11.8015
▁reminder	-11.8016
▁trace	-11.8016
tag	-11.8017
▁Poverty	-11.8022
▁temperature	-11.8022
▁Obama	-11.8022
▁maize	-11.8022
pol	-11.8022
set	-11.8024
▁inhumane	-11.8024
▁Recently	-11.8027
bre	-11.8028
▁Galicia	-11.8039
▁defines	-11.8043
▁Prosecutor	-11.8045
▁130	-11.8046
▁winter	-11.8046
▁exploiting	-11.8057
▁employer	-11.8063
▁temporarily	-11.8068
▁54	-11.8075
keeping	-11.8081
▁concur	-11.8089
▁legacy	-11.8091
▁diesel	-11.8091
▁disruption	-11.8098
▁Post	-11.81
▁prerogatives	-11.8105
▁Tunisian	-11.8106
▁revenues	-11.8108
▁unconditional	-11.8109
▁pandemic	-11.8114
▁passports	-11.8119
▁civilised	-11.8124
▁rose	-11.8127
▁documentation	-11.813
▁warned	-11.8131
▁Voting	-11.8138
▁obsolete	-11.8138
ath	-11.8138
▁unjust	-11.8138
▁Former	-11.8144
▁specifications	-11.8144
▁Too	-11.8145
▁finalised	-11.8151
▁manufacturer	-11.8155
▁influx	-11.8161
▁speculative	-11.8161
▁reimbursement	-11.8161
▁traders	-11.8161
▁flat	-11.8162
cor	-11.8171
▁deprive	-11.818
▁bulk	-11.8184
▁149)	-11.8184
five	-11.8185
▁Measures	-11.8185
▁acquisition	-11.8185
▁fulfilment	-11.8188
market	-11.819
▁don	-11.8192
▁sheet	-11.8195
GA	-11.8207
▁combining	-11.8208
▁evasion	-11.8208
▁thresholds	-11.8208
▁labelled	-11.8209
▁Lama	-11.8212
hood	-11.8214
▁worsening	-11.8215
▁emotional	-11.8222
compliance	-11.8224
▁locally	-11.8226
▁Kar	-11.8231
▁seed	-11.8232
▁Overall	-11.8233
▁Pat	-11.8235
▁expectation	-11.8238
OS	-11.824
▁file	-11.8242
▁deploy	-11.8246
▁speeding	-11.8248
In	-11.825
▁backdrop	-11.8255
▁gift	-11.8255
▁Evans	-11.8255
▁dwell	-11.8255
▁Life	-11.8256
▁renew	-11.8256
▁Currently	-11.8258
mat	-11.8263
▁loopholes	-11.8267
first	-11.8271
iev	-11.8272
▁objectively	-11.8273
TA	-11.8278
▁Official	-11.8279
▁Something	-11.8279
▁blockade	-11.8279
▁Canary	-11.8281
▁fragmented	-11.8282
▁Georgian	-11.8285
▁dictatorships	-11.8286
▁85	-11.8288
▁reservation	-11.8295
Behrendt	-11.8302
▁injuries	-11.8302
▁unchanged	-11.8302
▁interview	-11.8303
▁executed	-11.8304
▁socialists	-11.8305
▁protects	-11.8309
▁cleaner	-11.8312
▁younger	-11.8314
▁va	-11.8319
ene	-11.8321
▁connect	-11.8322
▁García	-11.8326
▁Nielson	-11.8326
▁novel	-11.8326
▁associate	-11.8328
reg	-11.8329
handed	-11.8329
▁Dell	-11.833
▁condemns	-11.8334
▁Ti	-11.8336
▁frameworks	-11.8338
▁adopts	-11.834
▁assertion	-11.8343
▁nationalist	-11.8345
▁Cardiff	-11.835
▁11.30	-11.835
▁Bi	-11.835
▁construct	-11.8352
▁breath	-11.8354
▁experiment	-11.837
lon	-11.8371
kin	-11.8372
▁beneficiary	-11.8374
▁dioxin	-11.8374
▁synergies	-11.8374
▁slightest	-11.8375
▁foreseeable	-11.8375
▁profitability	-11.8375
▁Langen	-11.8377
▁discriminated	-11.8379
▁renewables	-11.8383
cide	-11.8388
▁eventual	-11.8392
▁Juncker	-11.8398
▁Kyi	-11.8398
Ivoire	-11.8398
▁Kenya	-11.8398
ery	-11.8398
▁images	-11.8398
▁Tax	-11.8399
▁ECR	-11.8404
▁fat	-11.8408
▁boat	-11.8409
ica	-11.8414
▁massacre	-11.8415
▁Fifth	-11.8416
▁evidently	-11.8417
▁Tomorrow	-11.8422
▁UCLAF	-11.8422
▁spiral	-11.8422
▁Nobel	-11.8423
▁manifest	-11.8425
▁sand	-11.8428
▁correction	-11.8435
SA	-11.8436
▁machine	-11.8439
▁respectively	-11.844
▁Mauritania	-11.8442
▁municipal	-11.8445
▁landfill	-11.8446
▁modulation	-11.8446
▁remuneration	-11.8446
ü	-11.8446
▁dropped	-11.8446
▁studying	-11.8446
▁edge	-11.8446
▁agri	-11.8448
▁aspire	-11.8454
▁fan	-11.8456
▁modify	-11.8458
▁practise	-11.8465
▁cynical	-11.847
▁juncture	-11.847
▁troika	-11.847
▁nomination	-11.847
▁Sudanese	-11.847
▁1970	-11.847
▁polluting	-11.8471
ered	-11.8473
22	-11.8478
▁constructively	-11.8478
▁strain	-11.8485
evident	-11.8486
pen	-11.8493
▁Coelho	-11.8494
▁superfluous	-11.8494
Plath	-11.8494
▁reaches	-11.8495
▁corresponds	-11.8495
▁amounting	-11.8504
lat	-11.8504
▁9,	-11.8511
▁nets	-11.8513
▁Randzio	-11.8518
▁demonstrators	-11.8518
▁modifications	-11.8521
);	-11.8523
▁endless	-11.8527
aging	-11.853
▁heating	-11.8532
▁shed	-11.8532
▁safely	-11.854
▁explains	-11.8541
▁automotive	-11.8542
▁outrageous	-11.8543
▁urges	-11.8543
ez	-11.8544
▁west	-11.8547
▁season	-11.8548
some	-11.8548
▁improves	-11.8548
▁conflicting	-11.8551
No	-11.8551
▁endorses	-11.8554
producing	-11.8559
▁fed	-11.856
▁immigrant	-11.8561
▁ideals	-11.8561
▁chief	-11.8561
til	-11.8562
▁Bourlanges	-11.8567
▁dilemma	-11.8567
▁shot	-11.8567
▁coincidence	-11.8567
▁sittings	-11.8571
▁continuously	-11.8578
▁pledge	-11.858
▁chaired	-11.8585
▁marriage	-11.8586
▁precious	-11.8591
▁securities	-11.8591
▁sulphur	-11.8591
▁CIA	-11.8592
itarian	-11.8597
▁forwarded	-11.8602
▁principally	-11.8605
ctor	-11.861
▁withdrawing	-11.8615
▁Wales	-11.8616
▁literally	-11.8616
▁exhaustive	-11.8616
▁fur	-11.8621
risk	-11.8622
▁tolerated	-11.8625
▁emphasized	-11.8629
▁Si	-11.8631
▁escalation	-11.864
▁giant	-11.864
ON	-11.8652
▁reads	-11.8653
▁9.	-11.866
▁department	-11.866
▁unwilling	-11.8664
▁Bösch	-11.8665
▁extraordinarily	-11.8665
▁glass	-11.8665
▁Suu	-11.8666
zi	-11.8666
aving	-11.8667
▁ob	-11.8668
▁skilled	-11.8673
▁gathered	-11.8675
▁wondering	-11.8677
▁steer	-11.8677
▁trigger	-11.8681
▁characteristic	-11.8685
▁Côte	-11.8689
▁addiction	-11.8689
▁intimidation	-11.8689
▁vacuum	-11.8689
▁insistence	-11.8691
▁modernising	-11.8692
▁poll	-11.8692
▁penalised	-11.8696
cha	-11.8697
▁accurately	-11.8704
▁relocations	-11.8705
▁Fourth	-11.8709
▁Dialogue	-11.8714
▁cohesive	-11.8714
▁incumbent	-11.8714
▁infected	-11.8714
▁cited	-11.872
▁56	-11.873
ple	-11.873
▁invent	-11.8731
▁Man	-11.8731
▁extremist	-11.8734
▁hearts	-11.8737
80	-11.8738
▁Supervisor	-11.8739
▁destructive	-11.8739
▁hesitation	-11.8739
▁motivation	-11.8739
▁rethink	-11.8739
▁exchanging	-11.8739
▁performing	-11.8742
▁hedge	-11.8744
▁dealings	-11.8746
▁reminding	-11.8747
lex	-11.8748
▁feeding	-11.8754
▁confuse	-11.8759
ili	-11.8759
uch	-11.8763
▁contravene	-11.8764
▁undesirable	-11.8764
▁Combat	-11.8764
▁beliefs	-11.8766
wer	-11.8769
▁gold	-11.877
▁afforded	-11.8774
▁virtual	-11.8783
▁odd	-11.8784
ob	-11.8786
▁Schreyer	-11.8788
▁Castro	-11.8789
▁friendship	-11.8789
▁liquidity	-11.879
▁incineration	-11.879
▁buses	-11.8791
▁rulings	-11.8791
▁rein	-11.8793
ER	-11.88
val	-11.8803
▁cur	-11.8808
ord	-11.8811
▁wrongly	-11.8812
▁Ankara	-11.8813
▁Ortega	-11.8813
▁Technological	-11.8813
▁Temporary	-11.8813
▁redistribution	-11.8813
▁continents	-11.8814
▁Bear	-11.8817
▁format	-11.8818
▁Armenian	-11.8824
▁Recent	-11.8834
nov	-11.8835
▁foresee	-11.8836
fin	-11.8837
▁quest	-11.8837
▁ECOFIN	-11.8838
▁Secretariat	-11.8838
▁boycott	-11.8838
▁talent	-11.8839
▁cancelled	-11.8839
▁basin	-11.884
▁accelerated	-11.8845
▁murders	-11.8845
▁versions	-11.8849
▁balances	-11.8853
▁exacerbate	-11.8858
▁transpose	-11.8858
▁peacefully	-11.8859
▁norms	-11.8862
▁Dalai	-11.8863
▁stupid	-11.8863
▁traffickers	-11.8864
▁cigarettes	-11.8867
▁freeze	-11.8871
▁named	-11.8875
▁calculations	-11.8875
▁circles	-11.8879
raising	-11.8884
▁club	-11.8885
▁bonds	-11.8885
04	-11.8886
▁Aviation	-11.8889
▁Uganda	-11.8889
▁dividing	-11.8889
▁revive	-11.8889
▁Aung	-11.8893
▁abandoning	-11.8894
can	-11.8897
ied	-11.8899
▁Ge	-11.8903
▁keeps	-11.8903
▁grips	-11.8903
▁Ben	-11.8904
balanced	-11.8904
7-0	-11.8908
▁inventions	-11.8909
4/	-11.891
▁liquid	-11.8913
▁overdue	-11.8914
▁enjoys	-11.8916
▁populated	-11.8916
▁insight	-11.8917
▁beforehand	-11.892
▁Inter	-11.8921
▁Indonesian	-11.8921
▁corporations	-11.8921
▁Ja	-11.8922
▁reasoning	-11.8931
political	-11.8931
▁inspire	-11.8936
▁specialists	-11.8937
▁Chapter	-11.8939
▁Valencia	-11.8939
▁malaria	-11.8939
▁famine	-11.8939
▁district	-11.8939
▁arose	-11.8939
spec	-11.8943
▁liberalised	-11.8946
▁habits	-11.895
▁undergoing	-11.8955
Herzegovina	-11.8957
▁Ban	-11.8959
▁discriminate	-11.8959
▁solar	-11.896
round	-11.8962
▁Sierra	-11.8964
▁tsunami	-11.8964
▁subordinate	-11.8965
▁Karas	-11.8965
lot	-11.897
DP	-11.8972
▁moments	-11.8989
▁Incidentally	-11.899
▁frozen	-11.899
▁incomplete	-11.899
▁satisfactorily	-11.899
▁ancient	-11.899
▁Athens	-11.899
▁Data	-11.8991
▁delegated	-11.8994
▁landing	-11.8994
▁backward	-11.8996
lessness	-11.8996
▁parental	-11.8996
taking	-11.9014
▁equip	-11.9014
▁Canadian	-11.9015
▁asbestos	-11.9015
▁commodities	-11.9015
▁observance	-11.9015
▁unexpected	-11.9015
▁stopping	-11.9018
vert	-11.9024
rum	-11.9024
90	-11.9027
▁comprehensible	-11.9029
annual	-11.9037
▁ambiguous	-11.9041
▁incidence	-11.9041
▁yourselves	-11.9041
▁circumvent	-11.9041
▁observing	-11.9041
▁odds	-11.9045
▁regrets	-11.9047
▁describes	-11.9048
▁relatives	-11.9054
▁varying	-11.906
▁salmon	-11.9066
▁Chirac	-11.9066
▁Faced	-11.9066
▁Nabucco	-11.9066
▁cluster	-11.9066
▁liberalising	-11.9068
▁lowering	-11.907
▁iron	-11.9071
▁convert	-11.9072
▁justifies	-11.9072
tim	-11.9076
ung	-11.9083
hu	-11.9084
financial	-11.9084
▁responds	-11.9089
▁Albanians	-11.9091
▁Sustainable	-11.9092
▁accomplished	-11.91
▁ceilings	-11.9102
▁reaffirmed	-11.911
▁synergy	-11.9118
▁curious	-11.9118
like	-11.9119
ney	-11.9132
elected	-11.9136
AC	-11.9139
COS	-11.914
▁encompass	-11.9142
▁Ultimately	-11.9143
▁routine	-11.9143
▁holdings	-11.9151
▁drink	-11.9156
▁Ju	-11.9156
▁Ford	-11.9161
▁assisted	-11.9162
▁questioned	-11.9166
bal	-11.9168
▁trap	-11.9168
▁termed	-11.9168
▁Unlike	-11.9169
▁fix	-11.9175
dge	-11.9177
▁reduces	-11.918
▁Adam	-11.9184
▁Daphne	-11.9195
▁calendar	-11.9195
▁conferred	-11.9195
▁wipe	-11.9196
▁Har	-11.9198
▁insists	-11.9204
▁proportions	-11.922
▁Rübig	-11.9221
▁acknowledging	-11.9221
▁enforcing	-11.9221
▁envoy	-11.9221
▁manipulation	-11.9221
▁pupils	-11.9221
▁Prevention	-11.9221
▁twin	-11.9222
▁frequency	-11.9222
▁leg	-11.9232
▁supplemented	-11.9239
food	-11.924
▁shops	-11.9242
▁summarise	-11.9242
rry	-11.9242
▁memorandum	-11.9247
▁tribunal	-11.9247
▁unstable	-11.9247
▁Basel	-11.9247
▁GMO	-11.9247
▁varies	-11.9248
14	-11.9252
▁retaining	-11.9254
cut	-11.9255
▁electric	-11.9259
▁profoundly	-11.926
▁58	-11.9262
▁altered	-11.9263
▁Tra	-11.9264
▁recommending	-11.9271
▁ally	-11.9271
▁Croatian	-11.9273
▁Radical	-11.9273
▁elaborate	-11.9273
▁knock	-11.9273
▁mitigate	-11.9273
▁surrender	-11.9273
▁imposes	-11.9274
part	-11.9285
07	-11.9286
▁administer	-11.9291
▁fortunate	-11.9294
▁racial	-11.9299
▁chairmen	-11.93
▁bone	-11.9314
▁Par	-11.9315
▁screen	-11.9316
▁pertain	-11.932
▁explosive	-11.9326
▁dragg	-11.9331
▁devised	-11.9332
▁reap	-11.9332
▁foreigners	-11.9333
commerce	-11.9344
▁Six	-11.9351
▁Amnesty	-11.9352
▁Presidencies	-11.9352
▁anxiety	-11.9352
▁barbaric	-11.9352
▁mutilation	-11.9352
▁recipient	-11.9352
▁importing	-11.9354
▁paradoxical	-11.9359
▁enthusiastic	-11.9362
fish	-11.9366
bar	-11.9366
▁shortages	-11.9367
▁liberalise	-11.9375
▁unaware	-11.9378
hor	-11.9379
▁churches	-11.938
▁metres	-11.9381
▁persuaded	-11.9391
▁Bali	-11.9401
▁slave	-11.9404
▁City	-11.9405
▁Likewise	-11.9405
▁Universal	-11.9405
▁diversify	-11.9405
▁household	-11.9407
▁Arabia	-11.9408
▁practised	-11.941
ini	-11.9412
▁Force	-11.9413
▁hectares	-11.9422
▁publicity	-11.9425
ransatlantic	-11.9431
▁referral	-11.9431
▁outrage	-11.9434
▁Ru	-11.9434
▁impacts	-11.9435
▁sky	-11.9436
▁Herman	-11.9436
▁downward	-11.9442
▁adjusted	-11.9445
▁recipients	-11.9458
▁explosion	-11.9458
▁tendencies	-11.9458
▁unavoidable	-11.9458
▁mini	-11.9459
▁premises	-11.9473
ethnic	-11.9477
35	-11.9478
test	-11.9479
▁blatant	-11.9479
▁para	-11.9482
▁broaden	-11.9484
▁Lebanese	-11.9485
▁SWIFT	-11.9485
▁strand	-11.9485
▁unnecessarily	-11.9485
▁illusion	-11.9486
far	-11.9486
▁assassination	-11.9487
▁band	-11.9488
▁Maybe	-11.9489
▁upholding	-11.949
▁inhuman	-11.9492
ically	-11.9492
▁operated	-11.9497
▁films	-11.9498
▁du	-11.9499
▁dozens	-11.9509
▁confidential	-11.9511
▁exacerbated	-11.9517
▁illustrated	-11.9518
▁relying	-11.9525
▁2014	-11.9528
upreme	-11.9534
▁chicken	-11.9538
▁exciting	-11.9538
▁signatories	-11.9538
▁directors	-11.9552
09	-11.9554
18	-11.9557
▁resolute	-11.956
▁ECSC	-11.9565
▁Fifteen	-11.9565
▁intensified	-11.9565
▁pregnant	-11.9565
▁Staff	-11.9565
▁endeavouring	-11.9577
▁Sal	-11.9577
ala	-11.9578
specific	-11.9578
▁distorted	-11.9578
▁norm	-11.958
▁Florenz	-11.9592
▁Wynn	-11.9592
▁advisable	-11.9592
▁illicit	-11.9592
▁usefulness	-11.9604
going	-11.9612
▁2012.	-11.9616
▁Seattle	-11.9619
▁celebration	-11.9619
▁discrepancies	-11.9619
▁fraudulent	-11.9619
▁Dimas	-11.9619
▁Rocard	-11.9619
▁Lord	-11.9619
▁2050	-11.9621
▁ecosystem	-11.9622
▁timeframe	-11.9622
▁Du	-11.9623
style	-11.9625
lf	-11.9633
▁recitals	-11.9634
▁celebrating	-11.9646
▁justifiable	-11.9646
▁undertook	-11.9646
▁taste	-11.9646
▁Vigo	-11.9647
▁drastically	-11.9647
▁turnover	-11.9649
)].	-11.9663
parliamentary	-11.9666
growing	-11.9666
▁notified	-11.9672
▁scrap	-11.9673
▁confusing	-11.9673
▁Eritrea	-11.9673
▁unreservedly	-11.9675
thirds	-11.9675
cra	-11.9679
▁consume	-11.9693
▁hierarchy	-11.9701
▁combated	-11.9701
▁patterns	-11.9702
▁overturn	-11.9706
je	-11.9715
▁closest	-11.9722
▁Pri	-11.9723
▁Kashmir	-11.9728
▁University	-11.9728
▁Verhofstadt	-11.9728
▁deplorable	-11.9728
▁feedingstuffs	-11.9728
▁ICT	-11.9728
▁approximation	-11.9728
▁grey	-11.9728
▁tends	-11.9728
▁unsustainable	-11.9728
▁factual	-11.9729
established	-11.9732
▁homeland	-11.9732
▁underestimated	-11.9735
len	-11.9735
▁Others	-11.9737
▁corridors	-11.9739
▁appealing	-11.974
step	-11.974
▁tightening	-11.9743
cycle	-11.9748
▁useless	-11.975
12	-11.9751
▁rooted	-11.9755
/2007	-11.9755
▁distress	-11.9755
▁depleted	-11.9756
▁Titley	-11.9757
▁phone	-11.9759
45	-11.9762
▁realism	-11.9762
▁disturb	-11.9762
nder	-11.9763
▁emerges	-11.9764
▁mobilised	-11.9766
▁pr	-11.9775
▁utter	-11.9777
▁oblige	-11.9781
▁Admittedly	-11.9783
▁stabilising	-11.9783
▁Patent	-11.9783
▁angle	-11.9785
▁toll	-11.9787
▁originating	-11.9787
-00	-11.9791
▁seventh	-11.9791
▁hunting	-11.9793
▁output	-11.9797
bra	-11.9802
▁honey	-11.981
▁plight	-11.9812
▁waterways	-11.982
▁separated	-11.9826
▁pretend	-11.9826
▁soul	-11.9828
▁recalled	-11.9829
tabilisation	-11.9833
▁Berès	-11.9838
▁Leonardo	-11.9838
▁policing	-11.9838
▁shelter	-11.9838
▁solemn	-11.9838
▁bankruptcy	-11.9838
▁reintegration	-11.9839
▁indicator	-11.9842
▁bargaining	-11.9843
▁tougher	-11.9847
▁110	-11.9853
▁prompted	-11.9857
Nordic	-11.9858
(5)	-11.9863
▁households	-11.9865
▁Child	-11.9866
▁Ossetia	-11.9866
▁rice	-11.9866
▁recast	-11.9868
▁differentiated	-11.9869
▁Ver	-11.9874
▁inefficient	-11.9879
▁rebuilding	-11.9884
▁protocols	-11.9885
▁Y	-11.9886
iz	-11.9887
▁expressions	-11.9889
▁skill	-11.9892
▁Argentina	-11.9893
▁balancing	-11.9893
▁imagination	-11.9893
▁optimum	-11.9893
▁mature	-11.9893
▁resumption	-11.9894
▁flagrant	-11.9894
▁FYROM	-11.9894
▁exceeding	-11.9917
▁similarly	-11.9918
▁Kaliningrad	-11.9921
▁Singapore	-11.9921
▁esteem	-11.9921
▁repatriation	-11.9921
▁shipowners	-11.9921
▁outdated	-11.9921
▁discredit	-11.9922
▁Region	-11.9922
▁publishing	-11.9925
▁touches	-11.9927
▁absorb	-11.9928
▁seized	-11.993
▁Church	-11.9949
▁Abkhazia	-11.9949
▁Blokland	-11.9949
▁Lamfalussy	-11.9949
▁automobile	-11.9949
▁multilingualism	-11.995
▁native	-11.995
▁denial	-11.995
▁takeover	-11.995
▁deaf	-11.995
▁exporters	-11.9952
▁surpluses	-11.9953
▁democrat	-11.9953
▁targeting	-11.9954
▁dossiers	-11.996
▁hole	-11.9963
▁57	-11.9968
lli	-11.9973
▁supplying	-11.9975
▁confess	-11.9977
▁Hautala	-11.9977
▁Transparency	-11.9977
▁optional	-11.9977
▁delaying	-11.9982
▁96	-11.9984
▁winner	-11.9985
▁designation	-11.9987
▁widening	-11.9988
ily	-11.9997
▁Min	-11.9999
sector	-12
dict	-12.0004
▁Broek	-12.0005
▁federation	-12.0005
▁kick	-12.0006
ui	-12.0007
arm	-12.0009
▁measurement	-12.0016
▁teach	-12.0017
rop	-12.0025
▁accomplish	-12.0025
96	-12.0026
increasing	-12.0026
▁Guatemala	-12.0033
▁Saturday	-12.0033
▁detainees	-12.0033
▁expectancy	-12.0033
▁overhaul	-12.0033
▁Movement	-12.0034
▁convicted	-12.0034
▁Peter	-12.0037
▁tactics	-12.0038
▁journeys	-12.0038
▁pig	-12.0045
▁Gra	-12.0045
post	-12.0053
rd	-12.0056
▁winners	-12.0056
▁questioning	-12.0057
▁commun	-12.0057
▁comfort	-12.0061
▁Mitchell	-12.0062
▁travellers	-12.0062
▁uncertainties	-12.0062
▁transmitted	-12.0062
▁resettlement	-12.0062
▁decoupling	-12.0062
▁supporter	-12.0062
▁cargo	-12.0064
▁rests	-12.0069
▁Paul	-12.0073
▁Val	-12.0074
▁nutrition	-12.0077
▁interpretations	-12.0084
▁Gil	-12.009
▁horizon	-12.009
▁Malaysia	-12.009
▁Sky	-12.009
▁destiny	-12.009
▁indifferent	-12.009
▁steady	-12.009
▁voluntarily	-12.009
▁brother	-12.009
▁Che	-12.0097
▁Tri	-12.0097
lay	-12.0098
For	-12.01
▁rigorously	-12.0108
▁dam	-12.0111
▁summ	-12.0111
▁degrees	-12.0114
▁2011,	-12.0116
▁Almunia	-12.0118
▁Cashman	-12.0118
▁criticising	-12.0118
▁doctrine	-12.0118
▁Wallis	-12.0119
▁preceded	-12.012
▁ETA	-12.012
▁attendance	-12.012
▁oversee	-12.012
▁Out	-12.0121
▁63	-12.0126
▁select	-12.0128
▁wealthy	-12.0132
▁importers	-12.0133
needed	-12.0139
▁distribute	-12.0142
▁cat	-12.0146
▁complies	-12.0147
▁unfounded	-12.0148
▁Nazi	-12.0149
▁defer	-12.0151
▁outcomes	-12.0153
ane	-12.0158
ched	-12.0161
▁transformed	-12.0163
▁filled	-12.0164
▁soya	-12.017
▁park	-12.0171
compensatory	-12.0176
▁Regrettably	-12.0176
▁irreversible	-12.0176
▁pockets	-12.0183
▁bathing	-12.0184
17	-12.0189
▁suppose	-12.0201
▁Capital	-12.0204
▁Sterckx	-12.0204
▁sacrificed	-12.0211
pho	-12.0216
▁ratifying	-12.0221
▁Institutions	-12.0222
▁pertinent	-12.0233
▁freezing	-12.0233
IS	-12.0244
election	-12.0251
▁recruit	-12.0253
▁extract	-12.0261
▁Lannoye	-12.0262
▁deteriorating	-12.0262
▁harbour	-12.0262
▁pleasant	-12.0262
▁stories	-12.0262
▁chronic	-12.0262
▁vain	-12.0264
▁multilateralism	-12.0267
▁Bu	-12.027
▁infringe	-12.0276
▁mode	-12.0278
▁consisting	-12.0278
existent	-12.0279
Saharan	-12.0283
bro	-12.0287
▁broker	-12.0288
▁Oslo	-12.0291
▁laugh	-12.0291
▁progressing	-12.0291
▁historically	-12.0294
▁pledged	-12.0297
tar	-12.0302
▁representations	-12.0306
▁attacking	-12.0306
▁Hans	-12.0309
▁enrich	-12.0311
▁forever	-12.0311
▁paradox	-12.0312
▁Leinen	-12.032
▁ambiguity	-12.032
▁despair	-12.032
▁likelihood	-12.032
▁vicious	-12.032
▁exile	-12.0321
script	-12.0323
▁scientifically	-12.0326
▁constituent	-12.0328
▁rain	-12.0328
▁embarked	-12.0332
▁holders	-12.0332
avier	-12.0332
▁phased	-12.0333
▁benchmarks	-12.0335
▁exerted	-12.0342
▁hopeful	-12.0344
▁avail	-12.0347
▁Aznar	-12.0349
▁Feira	-12.0349
▁baby	-12.0349
hour	-12.0352
▁62	-12.0352
16	-12.0353
zy	-12.0355
▁bloody	-12.0358
▁originate	-12.0362
▁wh	-12.0367
▁ranging	-12.0368
▁enact	-12.037
book	-12.0371
hr	-12.0377
▁Jewish	-12.0378
▁catalogue	-12.0378
▁influenza	-12.0378
▁violating	-12.0378
▁intercultural	-12.0378
▁Guarantee	-12.0378
effective	-12.0381
▁prescribed	-12.0382
▁confirming	-12.0385
▁village	-12.0387
uck	-12.0397
/21	-12.0397
interest	-12.04
▁headed	-12.0404
ED	-12.0407
▁Assistance	-12.0407
▁entrepreneurial	-12.0407
▁unrest	-12.0407
▁zu	-12.0407
▁missile	-12.0407
▁educated	-12.0412
▁provider	-12.0417
▁endorsement	-12.0417
ches	-12.0426
people	-12.0429
▁Cairo	-12.0436
▁destined	-12.0436
▁impasse	-12.0436
▁jail	-12.0436
▁provocation	-12.0436
▁desertification	-12.0437
▁Based	-12.0437
▁unused	-12.0437
▁impressed	-12.0439
▁suffers	-12.044
▁undergo	-12.0442
▁ticket	-12.0446
▁qualification	-12.0446
▁pool	-12.0455
discriminatory	-12.0458
which	-12.0458
favoured	-12.0458
▁contributors	-12.046
▁lively	-12.046
▁Asylum	-12.0466
▁Doyle	-12.0466
▁mortgage	-12.0466
▁vigilance	-12.0466
▁Elles	-12.0466
▁refine	-12.0467
▁differs	-12.0474
▁Germans	-12.0476
RC	-12.0479
▁sacrifices	-12.0485
sharing	-12.0488
▁continental	-12.0494
▁equilibrium	-12.0495
▁mafia	-12.0495
outs	-12.0499
▁reside	-12.0511
▁backs	-12.0512
▁occupy	-12.0513
▁Bowis	-12.0525
▁denominator	-12.0525
▁illustration	-12.0525
▁miracle	-12.0525
▁Due	-12.0529
▁makers	-12.0532
pping	-12.0536
ks	-12.0538
▁pet	-12.0539
▁4%	-12.0541
▁tenth	-12.0542
▁progressively	-12.0543
turn	-12.0544
▁prolong	-12.0547
mber	-12.0549
▁scandals	-12.0551
▁Stalin	-12.0552
onourable	-12.0554
▁Hopefully	-12.0555
▁catalyst	-12.0555
▁reluctance	-12.0555
RE	-12.0555
▁Almost	-12.0555
▁counteract	-12.0555
ough	-12.0556
▁Progressive	-12.0556
▁subsidised	-12.0558
▁fl	-12.056
▁timescale	-12.0571
▁Am	-12.0573
▁Baringdorf	-12.0584
▁interfering	-12.0584
▁mobilising	-12.0584
▁qualities	-12.0584
▁scrutinise	-12.0584
▁spill	-12.0584
▁Bonn	-12.0584
ended	-12.0585
▁le	-12.059
▁chiefly	-12.0591
gate	-12.0595
▁myth	-12.0597
generation	-12.0601
▁disregarded	-12.0605
▁2.5	-12.0609
▁Violence	-12.0614
▁climatic	-12.0614
▁inadmissible	-12.0614
▁divergence	-12.0614
▁Senate	-12.0614
designate	-12.0614
▁passionate	-12.0615
▁customer	-12.0627
AT	-12.0628
rid	-12.0633
▁crucially	-12.0635
▁enlarge	-12.0638
▁gun	-12.0644
▁McKenna	-12.0644
▁comprising	-12.0644
▁dedication	-12.0644
▁generosity	-12.0644
▁joy	-12.0644
▁notwithstanding	-12.0644
▁59	-12.0649
▁Jan	-12.0649
zo	-12.0649
MS	-12.0651
▁changeover	-12.0655
▁outlines	-12.0658
▁resign	-12.0664
ifies	-12.0668
▁outright	-12.067
▁del	-12.067
▁Lampedusa	-12.0674
▁Prague	-12.0674
▁accommodation	-12.0674
▁brake	-12.0674
▁heartfelt	-12.0674
▁jeopardising	-12.0674
▁overnight	-12.0674
▁seafarers	-12.0674
▁Poles	-12.0675
▁breaks	-12.0678
▁quicker	-12.0682
▁allegedly	-12.0686
▁ski	-12.069
▁tele	-12.0693
where	-12.0694
private	-12.0697
▁Berg	-12.0703
cies	-12.0704
▁Graefe	-12.0704
▁fierce	-12.0704
▁intermediate	-12.0704
▁obesity	-12.0704
▁5.30	-12.0705
48	-12.0706
▁busy	-12.071
▁watered	-12.0711
ute	-12.0713
decentralisation	-12.0721
▁Leone	-12.0721
▁facilitated	-12.0726
benefit	-12.0727
▁awarding	-12.0728
▁coordinators	-12.0731
▁Brittan	-12.0735
▁GATT	-12.0735
▁GBP	-12.0735
▁Speaking	-12.0735
▁acceding	-12.0735
▁spur	-12.0735
▁Police	-12.0735
▁inviting	-12.0735
▁hostile	-12.0735
▁occasionally	-12.074
▁standardised	-12.0741
cer	-12.0747
▁Ki	-12.0748
human	-12.0751
▁sounds	-12.0752
▁killings	-12.0755
▁envisages	-12.0756
▁spouses	-12.0759
using	-12.0759
▁Animal	-12.0765
▁obscure	-12.0765
▁oversight	-12.0765
▁66	-12.0766
▁noble	-12.077
▁alien	-12.0772
▁cosmetics	-12.0775
▁merger	-12.0778
▁Syrian	-12.0781
▁trees	-12.0784
dumping	-12.0788
▁clash	-12.0794
▁assault	-12.0795
▁ignorance	-12.0795
▁inclined	-12.0795
▁intensity	-12.0795
▁intervening	-12.0795
▁synthetic	-12.0795
▁volatility	-12.0795
▁dry	-12.0799
nationalisation	-12.0807
▁fluctuations	-12.0808
▁Sp	-12.0808
list	-12.081
▁Needles	-12.081
▁expose	-12.0814
▁evaluations	-12.0817
▁returns	-12.0817
catch	-12.0818
▁star	-12.0822
▁church	-12.0824
▁Access	-12.0825
▁leak	-12.0825
▁Alexander	-12.0826
▁impede	-12.0826
▁confer	-12.0826
▁marginalised	-12.0826
▁grid	-12.0827
▁naive	-12.0827
▁awful	-12.0828
▁stream	-12.0828
▁staying	-12.0829
▁grassroots	-12.0829
▁Greenland	-12.0829
▁richest	-12.083
▁grip	-12.0839
ó	-12.0842
▁Tu	-12.0843
▁predicted	-12.0844
▁arrange	-12.085
▁Fischer	-12.0856
▁reconciling	-12.0856
▁unhappy	-12.0856
▁depart	-12.0857
ara	-12.0871
▁auction	-12.0875
▁donations	-12.0879
cho	-12.0883
▁violates	-12.0885
▁Thailand	-12.0887
▁allotted	-12.0887
▁deforestation	-12.0887
▁inquiries	-12.0887
Various	-12.0887
▁Daul	-12.0888
ean	-12.089
▁exit	-12.0891
ution	-12.0894
▁universally	-12.0896
▁motives	-12.0906
▁tickets	-12.0908
(4)	-12.0909
eu	-12.0916
▁Eurodac	-12.0918
▁batteries	-12.0918
▁collaborate	-12.0918
▁magnificent	-12.0918
▁annum	-12.0918
▁ashamed	-12.0918
▁plane	-12.0919
▁percent	-12.0919
▁avert	-12.092
▁abandonment	-12.092
mmer	-12.0925
▁rivers	-12.0926
▁350	-12.0928
▁meaningless	-12.0929
▁communicated	-12.0931
▁letting	-12.0931
▁coasts	-12.0932
nia	-12.0939
fall	-12.0944
▁Collins	-12.0949
▁ENP	-12.0949
▁repetition	-12.0949
▁Specifically	-12.0949
amp	-12.0949
Burton	-12.0952
▁sat	-12.0955
Re	-12.0956
▁Fifthly	-12.0956
del	-12.0958
AR	-12.0959
▁premise	-12.0963
▁forge	-12.0964
▁richer	-12.0965
▁accompany	-12.0967
print	-12.0972
plan	-12.0979
▁derivatives	-12.098
▁indignation	-12.098
▁rocket	-12.098
▁composed	-12.0981
▁midst	-12.0986
▁NGO	-12.0994
▁guideline	-12.0995
▁ignores	-12.0995
▁hunt	-12.0999
▁son	-12.101
▁2000-2006	-12.1011
▁Experience	-12.1011
▁suffice	-12.1011
▁taboo	-12.1011
▁shopping	-12.1011
▁ratings	-12.1012
▁Eight	-12.1013
▁sexes	-12.1016
▁accessing	-12.1017
▁anger	-12.1017
▁prevails	-12.1022
▁capitals	-12.1024
▁web	-12.1026
▁forums	-12.1032
general	-12.1034
CO	-12.1036
▁trick	-12.104
▁fulfils	-12.1041
▁cancel	-12.1041
▁print	-12.1041
▁erosion	-12.1042
▁identifies	-12.1042
▁postponing	-12.1042
▁tropical	-12.1042
▁scoreboard	-12.1042
▁Parties	-12.1043
▁predictable	-12.1044
▁benchmark	-12.1044
cum	-12.1046
▁overly	-12.1048
99	-12.1057
▁conduc	-12.1061
etting	-12.1063
owned	-12.1066
▁challenged	-12.1073
▁Recommendation	-12.1073
▁dignified	-12.1073
▁laudable	-12.1073
▁undeclared	-12.1073
▁presume	-12.1073
▁Things	-12.1073
▁Theato	-12.1073
▁token	-12.1079
▁bull	-12.108
▁Han	-12.1088
▁doubled	-12.1093
▁distances	-12.1096
▁Lange	-12.11
▁allocations	-12.1102
▁panic	-12.1103
▁Gebhardt	-12.1104
▁Pirker	-12.1104
▁Racism	-12.1104
▁scepticism	-12.1104
ä	-12.1104
▁conditionality	-12.1107
▁disciplinary	-12.1109
rating	-12.111
ani	-12.1114
▁detected	-12.1116
▁tankers	-12.112
-2013	-12.1135
troductory	-12.1136
▁filter	-12.1136
▁identities	-12.1136
▁improper	-12.1136
▁relocate	-12.1136
▁remedies	-12.1136
▁tantamount	-12.1136
▁undeniable	-12.1136
▁Špidla	-12.1136
▁injury	-12.1136
▁stuck	-12.1136
▁Haug	-12.1136
▁fool	-12.1137
▁Four	-12.1137
▁preventative	-12.1142
▁Cold	-12.1143
▁burning	-12.1144
CA	-12.1149
▁bat	-12.1152
tors	-12.116
▁doping	-12.1161
dding	-12.1163
▁dogma	-12.1167
▁Duisenberg	-12.1167
▁admire	-12.1167
▁emergencies	-12.1167
▁militarisation	-12.1167
▁Warrant	-12.1168
▁artistic	-12.1168
▁load	-12.1169
▁faithful	-12.1169
▁dictators	-12.117
▁starch	-12.1172
▁massacres	-12.1176
▁forcefully	-12.1178
2002)	-12.118
▁origins	-12.1181
▁wisely	-12.1184
▁proportional	-12.1184
▁passion	-12.1184
▁King	-12.1184
credit	-12.1191
▁transplant	-12.1197
▁Jackson	-12.1199
▁steadily	-12.1199
▁contemporary	-12.1199
▁upcoming	-12.1199
▁Throughout	-12.12
▁mediator	-12.1202
▁attributed	-12.1203
▁2015.	-12.1203
▁Opening	-12.1207
▁parent	-12.1208
▁conception	-12.121
▁seeds	-12.1215
South	-12.1223
▁dominate	-12.1226
▁computers	-12.1226
▁Arrest	-12.1231
▁Between	-12.1231
▁Transnistria	-12.1231
▁degradation	-12.1231
▁devastated	-12.1231
▁variable	-12.1231
▁Training	-12.1231
▁Conduct	-12.1231
▁channelled	-12.1231
▁authorising	-12.1233
▁tear	-12.1236
▁doubtful	-12.1238
▁appearing	-12.1242
▁mainstream	-12.1251
▁populist	-12.1263
▁unlimited	-12.1263
▁differentiation	-12.1263
▁hydrogen	-12.1264
▁Road	-12.1264
▁headway	-12.1264
▁stored	-12.1272
▁Along	-12.1275
▁prevailed	-12.1284
▁intensively	-12.1286
▁investor	-12.1288
▁Ludford	-12.1295
▁Recital	-12.1295
▁Technical	-12.1295
▁describing	-12.1295
▁misgivings	-12.1295
▁tempted	-12.1295
▁triumph	-12.1295
▁cleansing	-12.1295
▁hotel	-12.1296
▁hydro	-12.1297
▁consumed	-12.13
▁hugely	-12.1303
▁passes	-12.1307
▁deter	-12.1308
ider	-12.131
▁supplier	-12.1312
rew	-12.1317
▁tar	-12.1324
▁Rompuy	-12.1327
▁aftermath	-12.1327
▁declining	-12.1327
▁therapeutic	-12.1327
iest	-12.1327
▁Institutional	-12.1331
▁140	-12.1332
▁Ministerial	-12.1334
ese	-12.1336
▁aged	-12.1337
▁staffing	-12.1337
▁stipulat	-12.1346
open	-12.1352
▁presently	-12.1352
Alba	-12.1353
▁Title	-12.1357
▁scenarios	-12.1357
▁ASEM	-12.1359
▁School	-12.1359
▁fantastic	-12.1359
▁irrelevant	-12.1359
▁tiny	-12.1359
▁stir	-12.136
▁Level	-12.136
▁Read	-12.1362
▁arranged	-12.1364
▁Leon	-12.1378
▁pigs	-12.1384
▁Ferber	-12.1391
▁Nassauer	-12.1391
▁Philippines	-12.1391
▁brilliant	-12.1391
▁grain	-12.1391
▁hiding	-12.1391
▁contend	-12.1391
▁gulf	-12.1391
▁Zaire	-12.1391
▁detection	-12.1392
▁fitting	-12.1394
▁Abu	-12.1398
▁acknowledgement	-12.14
▁corrections	-12.1403
▁march	-12.1404
▁gene	-12.1405
▁platforms	-12.1406
ich	-12.1413
roots	-12.1416
speaking	-12.142
▁doubtless	-12.142
▁enjoying	-12.1421
▁Haarder	-12.1423
▁logistics	-12.1423
▁sleep	-12.1423
6-02	-12.1423
▁reinforces	-12.1426
▁timetables	-12.1432
▁globalization	-12.1433
▁advancing	-12.1456
▁authentic	-12.1456
▁prescription	-12.1456
▁proximity	-12.1456
▁upgrading	-12.1456
▁moderation	-12.1456
▁habit	-12.1456
▁coach	-12.1457
▁layer	-12.1458
▁cons	-12.147
▁reopen	-12.147
▁minimis	-12.1472
▁Comp	-12.1472
▁polls	-12.1475
▁objects	-12.148
▁dismantle	-12.1483
▁lip	-12.1484
ada	-12.1488
▁loyal	-12.1488
▁fits	-12.1488
▁Salafranca	-12.1488
▁globe	-12.1488
▁horrific	-12.1488
▁orphan	-12.1488
▁rebate	-12.1488
▁78	-12.1489
▁surveys	-12.1497
▁triggered	-12.1499
▁align	-12.1512
▁pronounce	-12.1516
tat	-12.1516
▁databases	-12.1516
▁Cup	-12.1521
▁betray	-12.1522
▁couples	-12.1524
▁lawmaking	-12.1524
▁Us	-12.1524
▁travelled	-12.1525
▁Particularly	-12.1525
▁advantageous	-12.1525
-06	-12.153
27	-12.1537
▁feared	-12.1538
▁suppress	-12.1545
west	-12.1545
▁rises	-12.1548
▁perceive	-12.1549
▁complementarity	-12.1554
▁motto	-12.1554
▁Twenty	-12.1554
▁Did	-12.1554
4-05	-12.1555
▁Terrorism	-12.1555
▁categorically	-12.1556
▁Hungarians	-12.1562
▁bypass	-12.1566
▁tortured	-12.1579
▁68	-12.1582
tz	-12.1584
▁Méndez	-12.1587
▁suppression	-12.1588
▁bridges	-12.1589
▁Card	-12.1592
▁Young	-12.1593
▁butter	-12.1596
▁transparently	-12.1596
▁height	-12.1598
▁clinical	-12.1599
pass	-12.16
▁Th	-12.1604
▁fronts	-12.1607
▁wound	-12.1611
▁contest	-12.1612
power	-12.1612
paid	-12.1613
▁walls	-12.1613
▁ice	-12.1617
▁Savary	-12.162
▁Tajani	-12.162
▁pregnancy	-12.162
▁civic	-12.162
▁adherence	-12.162
▁Mission	-12.1621
▁extraction	-12.1622
▁holidays	-12.1627
▁plead	-12.1628
▁machines	-12.1629
▁Forest	-12.163
used	-12.163
▁Refugees	-12.1636
▁hi	-12.1636
▁mess	-12.1642
personnel	-12.1645
lla	-12.1646
working	-12.1646
funded	-12.1651
sufficiency	-12.1653
▁Functioning	-12.1653
▁utilisation	-12.1653
▁generates	-12.1656
▁67	-12.1662
▁Pakistani	-12.1667
▁homosexuals	-12.1683
▁halv	-12.1686
▁SOLVIT	-12.1686
▁absorption	-12.1686
▁indifference	-12.1686
▁segment	-12.1686
▁lorry	-12.1686
▁unsafe	-12.1687
▁shores	-12.1687
0%	-12.1697
▁classic	-12.1698
▁registers	-12.17
▁wellbeing	-12.1703
▁volumes	-12.171
▁comprises	-12.1716
▁branch	-12.1718
▁Gibraltar	-12.1719
▁Helms	-12.1719
▁believing	-12.1719
▁deterrent	-12.1719
▁Za	-12.1722
▁recording	-12.1725
▁compensated	-12.1732
low	-12.1734
▁favourably	-12.1735
▁86	-12.1743
▁miles	-12.1752
▁Grossetête	-12.1753
▁subsidiary	-12.1753
▁unduly	-12.1753
▁Gradin	-12.1753
▁customary	-12.1753
▁ensu	-12.1754
▁clashes	-12.1755
fo	-12.1757
ón	-12.1769
▁ordered	-12.1769
▁rationale	-12.1776
rapporteur	-12.1779
rian	-12.1781
▁answering	-12.1785
▁backbone	-12.1786
▁deem	-12.1786
▁crude	-12.1787
▁Ε	-12.1787
vent	-12.1787
▁broke	-12.1788
▁Better	-12.1788
▁exhaust	-12.1789
▁style	-12.1796
▁livelihoods	-12.1797
▁supplements	-12.1804
▁Hughes	-12.182
▁Izquierdo	-12.182
▁mistrust	-12.182
▁loose	-12.182
▁lever	-12.182
21	-12.1823
▁suspects	-12.183
▁endangered	-12.1833
X	-12.1835
▁forty	-12.1839
mentioned	-12.1846
93	-12.1846
▁waterway	-12.1848
just	-12.1849
23	-12.1849
▁audits	-12.1852
▁bankrupt	-12.1854
▁Competitiveness	-12.1854
▁Revolution	-12.1854
▁Turkmenistan	-12.1854
▁achievable	-12.1854
▁contemplate	-12.1854
▁video	-12.1854
▁mismanagement	-12.1854
▁Basically	-12.1854
▁abundantly	-12.1856
▁Bio	-12.1859
▁diminish	-12.1867
▁gladly	-12.1875
▁cosmetic	-12.1877
▁preach	-12.1881
▁lag	-12.1883
stay	-12.1883
▁levelled	-12.1884
▁Ambassador	-12.1888
▁ESDP	-12.1888
▁Jews	-12.1888
▁deportation	-12.1888
▁eminent	-12.1888
▁situated	-12.1888
▁spectacular	-12.1888
6-01	-12.1888
▁consultative	-12.1889
▁constructed	-12.19
EE	-12.1904
American	-12.1914
▁coupled	-12.1915
▁evolve	-12.1917
▁establishments	-12.1919
▁whoever	-12.1921
▁Clinton	-12.1922
▁fingerprints	-12.1922
▁concede	-12.1922
▁lax	-12.1924
70	-12.1924
gro	-12.1924
▁bordering	-12.1927
▁exhausted	-12.193
▁plainly	-12.1934
▁gangs	-12.1938
business	-12.1948
▁instrumental	-12.1952
▁authorisations	-12.1955
▁Howitt	-12.1956
▁enemies	-12.1956
▁junta	-12.1956
▁trivial	-12.1956
▁vulnerability	-12.1956
▁employing	-12.1956
▁Review	-12.1956
▁scrapping	-12.1956
▁Dayton	-12.1957
non	-12.1957
▁preferably	-12.1957
▁defects	-12.1958
▁wing	-12.1959
24	-12.1959
lam	-12.196
▁clients	-12.1962
▁commissioned	-12.1972
▁livelihood	-12.198
visual	-12.1985
▁Buitenweg	-12.199
▁Crowley	-12.199
▁Either	-12.199
▁Sánchez	-12.199
▁unregulated	-12.199
▁sweet	-12.199
▁crystal	-12.199
▁trail	-12.199
▁coastline	-12.1991
▁extensively	-12.1994
▁flawed	-12.1994
▁61	-12.1997
▁administered	-12.2001
lly	-12.2004
▁EPAs	-12.2005
▁6%	-12.201
▁concession	-12.2015
(2001)	-12.2015
▁purchases	-12.202
▁maximise	-12.202
▁locations	-12.2022
▁incorporates	-12.2024
▁critics	-12.2025
▁militia	-12.2025
▁Order	-12.2025
rant	-12.2029
▁files	-12.2036
▁1988	-12.2037
▁shifting	-12.2043
▁institutes	-12.2046
▁earned	-12.2048
efficiency	-12.2051
▁breathe	-12.2053
-19	-12.2056
▁Experts	-12.2059
▁Morillon	-12.2059
▁Reconstruction	-12.2059
▁overriding	-12.2059
▁guest	-12.206
▁speedily	-12.206
▁ranks	-12.2061
▁contentious	-12.2064
▁hardest	-12.2072
▁homework	-12.2076
ula	-12.208
▁cereal	-12.2084
▁dismiss	-12.2084
▁64	-12.2086
▁risky	-12.2089
defined	-12.2091
▁websites	-12.2093
▁Front	-12.2093
▁Communism	-12.2094
▁PVC	-12.2094
▁genital	-12.2094
▁bail	-12.2094
▁leverage	-12.2094
▁Pan	-12.21
▁sham	-12.21
▁Being	-12.2102
PS	-12.2108
▁tie	-12.2127
▁Strip	-12.2128
▁cocoa	-12.2128
▁negligence	-12.2128
▁plunder	-12.2128
▁overlap	-12.2129
▁branches	-12.213
▁traps	-12.213
▁pledges	-12.2136
▁denounced	-12.2138
mark	-12.214
▁decreased	-12.2141
OP	-12.2145
ego	-12.2146
▁adversely	-12.2148
▁legitimately	-12.2148
▁heated	-12.2148
▁certificate	-12.2154
but	-12.2155
▁constitutions	-12.2156
▁Draft	-12.2159
my	-12.2162
stitut	-12.2163
▁Andersson	-12.2163
▁Position	-12.2163
▁luxury	-12.2163
▁hate	-12.2163
▁Drugs	-12.2164
▁disarm	-12.2164
▁Farmers	-12.2164
see	-12.2164
▁Mat	-12.2167
gged	-12.2168
▁rolling	-12.217
▁benchmarking	-12.2177
▁systemic	-12.2178
▁motorways	-12.2185
▁88	-12.2186
gra	-12.2194
▁Colleagues	-12.2198
▁Je	-12.2199
▁offend	-12.2201
▁auditing	-12.2206
9(	-12.2207
▁Colombian	-12.2207
▁pen	-12.2211
▁attracted	-12.2219
▁installation	-12.2225
▁cows	-12.2232
▁Flynn	-12.2233
▁Trichet	-12.2233
▁disclosure	-12.2233
▁gravity	-12.2233
▁intrinsic	-12.2233
▁tripartite	-12.2233
▁Klaus	-12.2233
▁Monnet	-12.2233
▁mentality	-12.2237
▁reign	-12.2239
▁lament	-12.224
net	-12.2252
▁realising	-12.2253
▁flourish	-12.2256
Loud	-12.2258
▁generalised	-12.226
▁sentiments	-12.2263
▁insignificant	-12.2267
▁drama	-12.2268
▁Franco	-12.2268
▁Frassoni	-12.2268
▁Martens	-12.2268
▁compelled	-12.2269
▁concentrations	-12.2269
▁exaggerated	-12.227
▁shorten	-12.2272
▁modu	-12.2274
graph	-12.2277
▁celebrated	-12.2278
▁catching	-12.2285
▁Bel	-12.2289
EA	-12.2295
▁vaccine	-12.2296
China	-12.2296
▁characterise	-12.23
▁Dührkop	-12.2304
▁Edinburgh	-12.2304
▁calculating	-12.2304
▁detract	-12.2304
▁receipt	-12.2304
▁vested	-12.2304
▁reintroduce	-12.2304
▁Whitehead	-12.2304
▁winning	-12.2305
▁George	-12.2311
▁weigh	-12.2313
▁Bos	-12.2321
more	-12.2321
▁Libyan	-12.2323
▁waves	-12.2324
▁Maghreb	-12.2339
▁Veterinar	-12.2339
▁abduction	-12.2339
▁arrogance	-12.2339
▁astonishing	-12.2339
▁crash	-12.2339
▁libraries	-12.2339
▁magnitude	-12.2339
▁unpleasant	-12.2339
▁Minsk	-12.2339
▁distributing	-12.2339
▁infant	-12.2341
▁appointments	-12.2346
▁row	-12.236
▁accuse	-12.2372
▁interpreting	-12.2373
▁habitats	-12.2373
▁Contrary	-12.2375
▁History	-12.2375
▁valued	-12.2378
▁exerting	-12.2379
▁supreme	-12.2381
IA	-12.239
▁prohibiting	-12.2399
▁relax	-12.24
▁stipulate	-12.2402
informed	-12.2403
▁Roman	-12.2408
▁Country	-12.2411
▁Department	-12.2411
▁Fatuzzo	-12.2411
▁Ocean	-12.2411
▁decreasing	-12.2411
▁unthinkable	-12.2411
▁cinema	-12.2411
▁spark	-12.2411
▁dissatisfaction	-12.2411
▁superpower	-12.2411
▁undergone	-12.2411
▁codification	-12.2411
▁formulating	-12.2413
pan	-12.2418
▁Five	-12.2418
▁setback	-12.2421
founded	-12.2441
▁prescribe	-12.2441
▁isolate	-12.2441
▁Welcome	-12.2446
▁expiry	-12.2446
▁gratifying	-12.2446
▁carcinogenic	-12.2447
vit	-12.245
▁witnesses	-12.2451
▁seasonal	-12.2451
▁roughly	-12.2452
▁tighter	-12.2452
▁sticking	-12.246
▁tightened	-12.246
▁mail	-12.2461
▁8%	-12.2464
▁exceeds	-12.2466
member	-12.2473
▁commence	-12.2477
ement	-12.2482
▁Alpine	-12.2482
▁maturity	-12.2482
▁preamble	-12.2482
▁shield	-12.2482
▁timid	-12.2482
▁domination	-12.2482
ncy	-12.2483
row	-12.2487
▁fee	-12.2498
zz	-12.25
Member	-12.2511
▁scarce	-12.2513
▁volunteers	-12.2516
▁Company	-12.2518
▁Napolitano	-12.2518
▁Stream	-12.2518
▁UNHCR	-12.2518
▁intermodal	-12.2518
▁monies	-12.2518
▁diplomats	-12.2519
▁expelled	-12.2519
▁ESF	-12.2521
ole	-12.2522
▁proceeds	-12.253
atic	-12.2532
▁Mont	-12.2534
▁stems	-12.2537
▁Latvian	-12.2537
field	-12.2547
▁tonne	-12.2549
▁consequent	-12.2549
aff	-12.2552
berg	-12.2553
▁Airbus	-12.2555
▁FAO	-12.2555
▁Thyssen	-12.2555
▁cumbersome	-12.2555
▁defensive	-12.2555
▁deletion	-12.2555
▁liaison	-12.2555
late	-12.2555
▁litre	-12.2555
▁incoming	-12.2556
▁precautions	-12.2558
link	-12.256
▁pill	-12.2561
▁indiscriminate	-12.2563
▁fin	-12.2564
▁fleeing	-12.2566
▁VI	-12.2566
▁lawful	-12.2572
▁patenting	-12.2573
service	-12.2583
bor	-12.2584
▁rough	-12.2586
▁obliges	-12.2586
▁Kallas	-12.2591
▁declaring	-12.2591
▁embryonic	-12.2591
▁lecture	-12.2591
▁Lamassoure	-12.2591
▁bolster	-12.2591
▁reactor	-12.2591
▁peer	-12.2591
▁losers	-12.2596
▁thin	-12.2604
▁finishing	-12.2608
▁fixing	-12.2608
▁dissidents	-12.2613
IP	-12.262
▁omission	-12.2622
▁CITES	-12.2628
▁abilities	-12.2628
▁happily	-12.2628
▁wife	-12.2628
▁wreck	-12.2628
read	-12.2628
▁indefinitely	-12.2629
room	-12.263
▁auditors	-12.2641
▁77	-12.2648
af	-12.2649
mission	-12.2653
▁Real	-12.2654
Africa	-12.2654
▁sorted	-12.2655
▁Cultural	-12.2664
▁abstract	-12.2664
▁crush	-12.2664
01)	-12.2665
▁offenders	-12.2666
▁disposed	-12.2672
▁Don	-12.2673
▁Nigerian	-12.2678
▁evade	-12.2684
▁comprehensively	-12.2684
▁continual	-12.2695
▁cigarette	-12.2696
▁advertise	-12.2701
▁Schroedter	-12.2701
▁Situation	-12.2701
▁Sjöstedt	-12.2701
▁coffee	-12.2701
▁fusion	-12.2701
▁initiating	-12.2701
▁flame	-12.2701
dvisory	-12.2701
▁reproduction	-12.2703
▁smallest	-12.2703
▁prosecuted	-12.2705
▁scare	-12.2709
▁proclaimed	-12.2709
▁failings	-12.2712
▁dictated	-12.2712
▁prerequisites	-12.2715
▁98	-12.2724
▁careers	-12.2731
▁gu	-12.2732
▁dreams	-12.2732
other	-12.2735
”	-12.2738
▁Deputy	-12.2738
▁Habsburg	-12.2738
▁Recovery	-12.2738
▁anticipation	-12.2738
▁renounce	-12.2738
▁unfavourable	-12.2738
▁Eurogroup	-12.2738
▁drinks	-12.274
▁Tony	-12.2743
▁corrective	-12.2751
▁skin	-12.2751
▁manifestation	-12.2752
▁reversed	-12.2756
▁pour	-12.2759
▁crews	-12.2761
1(	-12.2763
Euro	-12.2764
▁pot	-12.2766
▁worded	-12.2771
▁listing	-12.2771
▁geographic	-12.2772
▁Dupuis	-12.2775
▁Mozambique	-12.2775
▁admiration	-12.2775
▁cheque	-12.2775
▁recipe	-12.2775
▁nominal	-12.2775
▁Liese	-12.2775
▁Vote	-12.2776
▁450	-12.2784
4(	-12.2788
2(	-12.2793
▁hang	-12.2801
▁ironic	-12.2803
nate	-12.2809
▁Baghdad	-12.2812
▁leisure	-12.2812
▁sophisticated	-12.2812
▁dispel	-12.2812
▁permissible	-12.2812
▁tailored	-12.2818
holders	-12.282
▁converted	-12.2824
▁artificially	-12.2826
▁Coal	-12.2829
▁sail	-12.2837
▁Generally	-12.2839
▁waged	-12.284
▁officer	-12.2841
▁throwing	-12.2843
▁Future	-12.2849
▁rapprochement	-12.2849
▁reproach	-12.2849
▁notorious	-12.2849
▁magic	-12.2849
▁Burg	-12.285
▁TAC	-12.285
55	-12.2861
▁curtail	-12.2879
paragraph	-12.2879
46	-12.2884
ley	-12.2885
▁Kyrgyzstan	-12.2887
▁destabilise	-12.2887
▁mercy	-12.2887
▁roaming	-12.2887
▁standstill	-12.2887
▁sympathetic	-12.2887
▁12.00	-12.2887
▁eastward	-12.2888
▁censorship	-12.2888
type	-12.2889
▁dealers	-12.289
▁commented	-12.289
▁civilisations	-12.2896
▁fats	-12.2899
▁82	-12.2907
▁semi	-12.2911
▁owner	-12.2916
▁inspect	-12.2922
▁rebel	-12.2923
▁Cunha	-12.2924
▁Implementation	-12.2924
▁Trakatellis	-12.2924
▁discrepancy	-12.2924
▁meanwhile	-12.2924
▁jump	-12.2924
▁IMO	-12.2924
▁transmit	-12.2925
▁communism	-12.2925
▁emit	-12.2926
▁194	-12.2926
▁cleaning	-12.2929
▁pronounced	-12.293
lock	-12.2932
spot	-12.2933
▁1.2	-12.2943
▁compromised	-12.2945
▁recovered	-12.2947
▁monthly	-12.2952
▁abstaining	-12.2962
▁Kosovar	-12.2962
▁Proposal	-12.2962
▁Schröder	-12.2962
▁corps	-12.2962
▁prestige	-12.2962
▁reassess	-12.2962
▁tired	-12.2962
▁veal	-12.2962
▁Alps	-12.2962
fledged	-12.2962
▁shortfall	-12.2964
cost	-12.2965
▁Arms	-12.2969
saving	-12.2981
▁barr	-12.2982
▁shocks	-12.2982
▁powerless	-12.2983
gui	-12.2986
▁borrow	-12.2988
public	-12.299
▁hormones	-12.2994
▁restructure	-12.2996
▁accusation	-12.2998
▁bills	-12.3
▁Journal	-12.3
š	-12.3
▁specifies	-12.3
▁settling	-12.3
▁revolutionary	-12.3002
▁pictures	-12.3004
▁downturn	-12.3004
▁misused	-12.3009
▁repeal	-12.3018
▁rank	-12.3021
▁Govern	-12.3021
▁proclaim	-12.303
▁Weber	-12.3031
▁commissioners	-12.3031
▁1986	-12.3038
▁cabotage	-12.3038
▁mixture	-12.3038
▁revisit	-12.3038
▁superficial	-12.3038
▁unwanted	-12.3038
▁bluefin	-12.3038
▁wasting	-12.3046
▁strategically	-12.3046
▁forceful	-12.3048
▁critically	-12.305
connect	-12.3069
▁attentive	-12.3071
▁eager	-12.3071
▁irregular	-12.3075
▁Mechanism	-12.3076
▁apologies	-12.3076
▁ceremony	-12.3076
▁xenophobic	-12.3076
5-05	-12.3078
▁totalitarianism	-12.3078
▁discards	-12.3078
▁conceived	-12.3081
▁Works	-12.3082
under	-12.3085
▁emotion	-12.3089
▁nutritional	-12.3094
▁appointing	-12.3103
sessions	-12.3103
green	-12.3107
▁provoke	-12.3109
▁discard	-12.3113
▁Breyer	-12.3115
▁Hatzidakis	-12.3115
▁laboratories	-12.3115
▁landmines	-12.3115
▁surge	-12.3115
▁correlation	-12.3115
▁thereof	-12.3121
8(	-12.3122
▁sin	-12.3124
▁directorate	-12.3131
BC	-12.3133
▁Decisions	-12.3136
military	-12.3145
▁supervise	-12.3148
▁insert	-12.3148
▁Legislat	-12.3152
▁Goebbels	-12.3153
▁empire	-12.3153
▁presumably	-12.3153
▁yardstick	-12.3153
▁spiritual	-12.3153
▁flagship	-12.3154
Co	-12.3154
▁lying	-12.3154
▁Laos	-12.3154
▁groupings	-12.316
limit	-12.3161
▁dismissed	-12.3162
care	-12.317
▁annexed	-12.3173
▁Documents	-12.3173
▁mountains	-12.3179
word	-12.318
▁assumes	-12.3182
7(	-12.3182
▁remembering	-12.3184
▁pattern	-12.319
▁cloud	-12.3192
▁photograph	-12.3192
▁uprising	-12.3192
▁signatory	-12.3193
▁provoked	-12.3197
▁matches	-12.3197
▁exempted	-12.3214
65	-12.3215
▁hostages	-12.3216
(97)	-12.323
▁Lancker	-12.323
▁Piebalgs	-12.323
▁Sellafield	-12.323
▁Turks	-12.323
▁relies	-12.323
▁vertical	-12.323
▁terminal	-12.3231
▁acid	-12.3231
▁instruct	-12.3241
▁sharply	-12.3242
ami	-12.3243
▁fled	-12.3243
▁rear	-12.3245
▁constructing	-12.325
▁collapsed	-12.3254
▁slaughtered	-12.3261
EGF	-12.3262
ibility	-12.3266
▁abstention	-12.3268
▁72	-12.3269
▁desert	-12.3269
▁bottle	-12.3269
▁stagnation	-12.3269
▁substitution	-12.3269
▁umbrella	-12.3269
▁Lucas	-12.3269
▁tanks	-12.3269
▁obey	-12.3269
▁golden	-12.3271
(1999)	-12.3274
▁inflicted	-12.3274
▁alcoholic	-12.3275
▁definitively	-12.3288
ida	-12.3288
▁turnout	-12.329
▁ears	-12.3291
▁eggs	-12.3294
2004	-12.3302
rou	-12.3304
▁Drug	-12.3308
▁Tomlinson	-12.3308
▁custody	-12.3308
▁eradicating	-12.3308
▁invalid	-12.3308
▁evolving	-12.3309
▁mood	-12.3309
▁counted	-12.3322
ique	-12.3324
▁Ku	-12.3333
▁Nord	-12.3339
▁reacting	-12.334
ura	-12.3346
▁bread	-12.3347
▁aspiration	-12.3347
▁Fraga	-12.3348
▁envelope	-12.3348
▁fibre	-12.3348
▁invaluable	-12.3348
▁portray	-12.3348
▁residing	-12.3348
▁revival	-12.3348
▁transposing	-12.3348
▁divergent	-12.3348
▁TEN	-12.3348
▁predominantly	-12.335
▁hardship	-12.3351
▁teacher	-12.3351
▁deteriorated	-12.3352
▁Had	-12.3362
▁outgoing	-12.3364
ici	-12.3365
▁governmental	-12.3366
▁rumours	-12.3376
▁illusions	-12.3385
▁Earth	-12.3387
▁Eurobarometer	-12.3387
▁Lambert	-12.3387
▁Platform	-12.3387
▁Tannock	-12.3387
▁appraisal	-12.3387
▁daughter	-12.3387
▁influential	-12.3387
▁permitting	-12.3389
▁broadcasters	-12.339
gan	-12.3399
▁fruits	-12.3403
▁criminality	-12.3411
polluter	-12.3419
▁waited	-12.3426
▁respectful	-12.3426
▁cyber	-12.3426
▁Giscard	-12.3426
▁unsuccessful	-12.3426
▁restaurant	-12.3426
▁pray	-12.3427
▁municipalities	-12.3427
▁Fava	-12.3427
▁reactionary	-12.343
▁tip	-12.343
ij	-12.3431
dra	-12.3432
▁flee	-12.3447
▁formerly	-12.3452
▁specifying	-12.3453
products	-12.3454
▁realm	-12.3456
▁dock	-12.3456
▁Cappato	-12.3466
▁Nicaragua	-12.3466
▁Quaestors	-12.3466
▁acquiring	-12.3466
▁embarrassing	-12.3466
▁inconceivable	-12.3466
▁logistical	-12.3466
▁transcend	-12.3466
▁multifunctional	-12.3466
▁index	-12.3467
▁rebels	-12.347
▁Rapporteur	-12.3473
91	-12.3476
▁commissioner	-12.3482
▁campaigning	-12.3482
EP	-12.3483
▁Mor	-12.3484
89	-12.3484
▁presupposes	-12.3488
▁99	-12.3495
▁suspending	-12.3501
▁organize	-12.3501
aladministration	-12.3506
▁1985	-12.3506
▁lobbies	-12.3506
▁unscrupulous	-12.3506
▁forbidden	-12.3506
▁closures	-12.3506
▁hake	-12.3507
▁Marco	-12.3508
uous	-12.3509
▁WEU	-12.3509
▁residues	-12.3513
▁interrupted	-12.3514
▁+	-12.3521
▁freed	-12.3529
▁interrupt	-12.353
▁tap	-12.3534
▁opting	-12.3534
competitive	-12.3537
fraud	-12.3539
▁attribute	-12.3541
Weggen	-12.3546
▁Increasing	-12.3546
▁Sacconi	-12.3546
▁horrendous	-12.3546
▁inalienable	-12.3546
▁unrestricted	-12.3546
▁appropriation	-12.3547
66	-12.3551
▁differential	-12.3568
▁posted	-12.3571
▁relieve	-12.3578
5%	-12.3582
▁ran	-12.3585
▁Colom	-12.3586
▁Marín	-12.3586
▁Munich	-12.3586
▁disparity	-12.3586
▁infectious	-12.3586
▁interdependence	-12.3586
▁franc	-12.3586
▁Maij	-12.3587
▁earthquakes	-12.3587
▁surrounded	-12.3591
▁constituted	-12.3592
uk	-12.3596
6(	-12.3599
fly	-12.3602
▁prohibits	-12.3607
▁documented	-12.3609
▁widen	-12.3615
cqu	-12.3618
▁Sam	-12.362
▁outbreaks	-12.3622
▁Buzek	-12.3626
▁Guidelines	-12.3626
▁McCarthy	-12.3626
▁hurt	-12.3626
▁riot	-12.3626
▁Duff	-12.3628
▁Making	-12.3628
▁expired	-12.363
▁2003/	-12.3639
▁deduct	-12.3657
▁rival	-12.3667
▁Genoa	-12.3667
▁Kauppi	-12.3667
▁Wurtz	-12.3667
▁liberation	-12.3667
▁reassuring	-12.3667
▁endorsing	-12.3667
▁81	-12.3668
▁Independence	-12.367
vil	-12.3672
▁69	-12.3678
▁portion	-12.3692
rag	-12.3699
▁conveyed	-12.3701
flow	-12.3706
▁Turmes	-12.3708
▁concise	-12.3708
▁dirty	-12.3708
▁plastic	-12.3708
▁random	-12.3708
▁Belder	-12.3708
▁fortune	-12.3708
▁carrier	-12.371
▁annexes	-12.3711
▁Whereas	-12.3712
▁900	-12.3713
▁Wise	-12.3713
euro	-12.3714
▁Times	-12.372
▁Karl	-12.3722
▁rightful	-12.3723
mann	-12.3726
sea	-12.3729
rich	-12.3732
▁Gill	-12.3738
hearted	-12.3738
gh	-12.3739
terrorist	-12.3741
▁Istanbul	-12.3748
▁Maltese	-12.3748
▁Mexican	-12.3748
▁Staes	-12.3748
▁Warsaw	-12.3748
Estaing	-12.3748
▁River	-12.375
▁formalities	-12.3752
▁polluted	-12.3752
▁clock	-12.3753
▁underground	-12.3753
▁Bill	-12.3758
ux	-12.3761
▁broadest	-12.3761
ional	-12.3767
▁ecologically	-12.3783
▁physically	-12.3785
▁Holland	-12.3789
▁Katiforis	-12.3789
▁Nicholson	-12.3789
▁salute	-12.3789
▁undue	-12.3789
▁Negotiations	-12.3789
Fraud	-12.3789
▁Unemployment	-12.379
▁Essen	-12.379
▁childhood	-12.3791
▁nominated	-12.3792
▁dozen	-12.3793
▁excesses	-12.3793
longside	-12.3802
▁jeopardised	-12.3805
▁reassured	-12.3806
▁ample	-12.3808
▁cry	-12.3812
nterim	-12.3816
▁variations	-12.3822
peripheral	-12.3823
Commission	-12.3823
handling	-12.3824
start	-12.3826
Proliferation	-12.3831
▁Correction	-12.3831
▁apparatus	-12.3831
▁episode	-12.3831
▁observatory	-12.3831
▁sterling	-12.3831
▁teeth	-12.3831
▁amazed	-12.3831
▁Visa	-12.3832
▁equate	-12.3832
▁Scandinavian	-12.3832
▁unbalanced	-12.3832
▁ERDF	-12.3832
▁homosexual	-12.3833
▁revert	-12.3834
▁comprise	-12.3834
▁invoked	-12.3836
▁Pope	-12.3839
▁Tibetans	-12.384
▁chains	-12.3841
▁cornerstones	-12.3849
▁bow	-12.3855
▁Look	-12.386
continuation	-12.3864
trans	-12.3866
▁bind	-12.3867
▁diplomas	-12.3869
ordinate	-12.3871
▁superior	-12.3871
▁Diamantopoulou	-12.3872
▁Observatory	-12.3872
▁Strategic	-12.3872
▁announcing	-12.3872
▁reorganisation	-12.3872
▁speculators	-12.3872
▁MEDIA	-12.3872
▁enrichment	-12.3873
▁rock	-12.3873
▁offshore	-12.3873
6-03	-12.3873
pla	-12.3874
▁mineral	-12.3876
▁lapse	-12.3876
▁rendered	-12.3891
96)	-12.3892
▁clarifications	-12.3898
seekers	-12.3906
▁bath	-12.3907
99)	-12.3908
▁invoke	-12.3908
▁89	-12.3909
treated	-12.3912
▁potato	-12.3912
▁henceforth	-12.3913
▁perverse	-12.3913
▁Eurocontrol	-12.3914
▁stereotypes	-12.3922
▁fun	-12.3923
▁enacted	-12.3925
▁finalise	-12.3926
weight	-12.3942
▁complaining	-12.3943
lateral	-12.3945
29	-12.3946
employment	-12.3946
▁inaugura	-12.3955
▁astonished	-12.3955
▁clarifies	-12.3955
▁clever	-12.3955
▁flesh	-12.3955
▁harness	-12.3955
▁thirteen	-12.3955
▁truck	-12.3955
▁Disease	-12.3955
II	-12.3955
▁quoting	-12.3956
▁transplantation	-12.3957
▁writer	-12.3957
▁Heading	-12.3966
▁refund	-12.3966
era	-12.3969
▁dire	-12.397
▁exchanged	-12.3986
arian	-12.3987
▁logically	-12.3988
▁bas	-12.399
▁compel	-12.3996
▁Election	-12.3997
▁legitimise	-12.3997
▁verified	-12.3997
ñ	-12.3997
▁indulge	-12.3997
▁joke	-12.3997
▁MPs	-12.3997
Claude	-12.3997
▁35%	-12.3999
▁wholesale	-12.3999
SO	-12.4005
▁argues	-12.4006
▁distributors	-12.4008
3(	-12.401
▁delegates	-12.4021
pped	-12.4022
Mr	-12.4028
▁subsidise	-12.4034
▁intervened	-12.4037
▁Congratulations	-12.4039
▁Zealand	-12.4039
▁accuracy	-12.4039
▁pedestrian	-12.4039
▁vigour	-12.4039
▁Lakes	-12.4039
▁underpinning	-12.4039
▁employability	-12.404
▁flexicurity	-12.404
▁pesticide	-12.4044
▁FTA	-12.4045
▁bond	-12.4045
▁Interior	-12.4053
▁deregulat	-12.4057
lash	-12.4069
▁presidents	-12.4071
▁129	-12.4077
▁Seppänen	-12.4081
▁Solbes	-12.4081
▁Uruguay	-12.4081
▁doubling	-12.4081
▁falsified	-12.4081
▁guarantor	-12.4081
▁rejoice	-12.4081
▁upheaval	-12.4081
▁biogas	-12.4081
▁cutbacks	-12.4081
▁Stra	-12.4081
▁distrust	-12.4081
▁avian	-12.4081
▁Point	-12.4081
▁lodged	-12.4084
▁EEAS	-12.4084
▁geographically	-12.4084
▁mono	-12.4084
▁Was	-12.4087
▁actor	-12.4087
▁geo	-12.4091
▁Togo	-12.4092
▁infringed	-12.4094
▁hanging	-12.4095
▁headlines	-12.4101
you	-12.4105
▁Cast	-12.4106
28	-12.4111
▁matched	-12.4113
▁adjusting	-12.4113
Atlantic	-12.4116
▁enshrine	-12.4118
ama	-12.412
▁notify	-12.4121
▁Rasmussen	-12.4123
▁Renault	-12.4123
▁intermediaries	-12.4123
▁misguided	-12.4123
▁opportune	-12.4123
▁Respect	-12.4123
▁Maaten	-12.4124
43	-12.4125
▁advisers	-12.4125
▁devot	-12.4132
▁auto	-12.4133
tax	-12.4135
▁pit	-12.4141
LV	-12.4143
▁revealing	-12.4147
▁depriv	-12.4155
▁Port	-12.4165
▁endeavoured	-12.4166
▁Catalan	-12.4166
▁Chichester	-12.4166
▁Especially	-12.4166
▁Gollnisch	-12.4166
▁Jensen	-12.4166
▁Madagascar	-12.4166
▁inflexible	-12.4166
▁devising	-12.4166
▁verbal	-12.4166
▁Bavaria	-12.4166
▁intact	-12.4166
▁pound	-12.4167
▁alignment	-12.4167
▁politic	-12.4169
▁dust	-12.417
▁utilised	-12.4171
▁disagreements	-12.4174
▁enhancement	-12.4177
▁Ali	-12.4184
▁excludes	-12.4184
▁prisoner	-12.4191
(2000)	-12.4204
▁filling	-12.4204
▁Senegal	-12.4209
▁Guantanamo	-12.4209
▁aegis	-12.4209
▁fourteen	-12.4209
▁insecure	-12.4209
(96)	-12.4209
▁disputed	-12.4209
▁dictatorial	-12.4209
▁comfortable	-12.421
▁oppressed	-12.4215
▁hormone	-12.4216
▁sentiment	-12.4216
▁unify	-12.4217
place	-12.422
▁lifetime	-12.4223
▁cooperated	-12.4228
▁attained	-12.4231
▁Iron	-12.424
production	-12.4244
change	-12.4244
bound	-12.4245
▁utilise	-12.4247
▁shipments	-12.4251
▁Administrative	-12.4252
▁Gaddafi	-12.4252
▁conceivable	-12.4252
▁disclose	-12.4252
▁justifiably	-12.4252
▁provocative	-12.4252
▁Auto	-12.4252
▁persistence	-12.4252
▁boom	-12.4252
36	-12.4256
▁liberalism	-12.4258
Q	-12.4258
djournment	-12.4259
▁marriages	-12.4262
▁12%	-12.4263
sufficient	-12.4266
region	-12.4266
rap	-12.427
▁clearance	-12.4271
▁pipelines	-12.4278
Article	-12.4287
▁harmonize	-12.429
▁Bertens	-12.4295
▁Eurobonds	-12.4295
▁Space	-12.4295
▁peak	-12.4295
▁hurdle	-12.4295
talling	-12.4295
▁haulage	-12.4295
33	-12.43
▁morally	-12.4304
▁widest	-12.4307
ception	-12.432
card	-12.4323
▁confronting	-12.4329
▁87	-12.4333
▁calculate	-12.4333
▁differentiate	-12.4333
▁Simpson	-12.4338
▁bizarre	-12.4338
▁nightmare	-12.4338
▁rectified	-12.4338
▁spokesman	-12.4338
▁induce	-12.4338
▁superstate	-12.4339
▁Zana	-12.4339
▁Brazilian	-12.434
▁FP	-12.4341
keeper	-12.4345
▁printed	-12.435
▁Motor	-12.4353
▁oldest	-12.4355
▁deriv	-12.4361
burg	-12.4374
▁experimental	-12.4374
▁71	-12.4375
▁husband	-12.4381
▁dismay	-12.4382
▁squander	-12.4382
▁Alavanos	-12.4382
▁Channel	-12.4382
▁Galeote	-12.4382
▁mirror	-12.4382
▁nurses	-12.4382
▁sensibly	-12.4382
▁sympathise	-12.4382
▁unquestionably	-12.4382
CE	-12.4382
▁95%	-12.4383
▁unpaid	-12.4383
Robles	-12.4384
▁properties	-12.4384
▁caring	-12.4387
▁1987	-12.4387
▁prejudices	-12.4389
stop	-12.439
treatment	-12.4394
▁expires	-12.44
▁handful	-12.4403
▁contributor	-12.4405
▁predecessors	-12.4408
▁Sc	-12.4416
legislator	-12.4417
▁disappearing	-12.4425
▁Flanders	-12.4425
▁Immigration	-12.4425
▁Kroes	-12.4425
▁Reference	-12.4425
▁Ribeiro	-12.4425
▁courtesy	-12.4425
▁efficacy	-12.4425
▁laboratory	-12.4425
▁unpunished	-12.4425
▁varieties	-12.4425
▁greed	-12.4425
▁Schuman	-12.4425
▁wearing	-12.4427
fat	-12.4431
▁sweeping	-12.4433
▁Maes	-12.4439
▁rewarded	-12.4443
▁ceased	-12.4449
▁alliances	-12.4455
▁entrust	-12.4461
▁simultaneous	-12.4464
▁protesting	-12.4464
▁reinstate	-12.4464
EF	-12.4465
▁UNESCO	-12.4469
▁jungle	-12.4469
▁reassurance	-12.4469
▁requisite	-12.4469
▁simplistic	-12.4469
▁raft	-12.4469
bel	-12.4471
▁invention	-12.448
▁tenders	-12.4487
▁fourthly	-12.4503
binding	-12.4506
▁EBRD	-12.4513
▁Gallagher	-12.4513
▁carpet	-12.4513
▁commensurate	-12.4513
▁convenient	-12.4513
▁credentials	-12.4513
▁inconsistencies	-12.4513
▁Rossa	-12.4513
▁Railway	-12.4513
▁boast	-12.4513
▁Markov	-12.4513
▁TENs	-12.4513
▁Thors	-12.4514
▁accumulated	-12.4516
▁retailers	-12.4516
▁nationalities	-12.452
▁Islamist	-12.453
▁reconciled	-12.4531
▁costing	-12.4537
elect	-12.4538
▁oceans	-12.4543
▁metals	-12.4547
Rapporteur	-12.455
Israel	-12.455
esumption	-12.4557
▁Caudron	-12.4557
▁Mundus	-12.4557
▁TRIPS	-12.4557
▁dishonest	-12.4557
▁enlarging	-12.4557
▁unforeseen	-12.4557
▁ICAO	-12.4557
▁Morgan	-12.4557
▁Schmidt	-12.456
▁Reduc	-12.4562
▁biased	-12.4563
▁boys	-12.4563
▁pack	-12.4565
▁Dan	-12.4569
taining	-12.4573
▁prosecute	-12.4597
▁blank	-12.4601
▁advent	-12.4602
Semitism	-12.4602
▁Busquin	-12.4602
▁LEADER	-12.4602
▁constituencies	-12.4602
▁embassies	-12.4602
▁perpetuate	-12.4602
▁veritable	-12.4602
▁0.7%	-12.4602
▁versa	-12.4602
▁lump	-12.4602
ão	-12.4602
▁distract	-12.4602
▁correspondence	-12.4602
▁Undertaking	-12.4602
▁gay	-12.4602
third	-12.4605
▁Camp	-12.4606
kov	-12.4607
ori	-12.4612
▁Peru	-12.4612
▁tolls	-12.4615
▁defeated	-12.4622
▁mount	-12.4635
▁108	-12.4638
▁educate	-12.4641
▁Linkohr	-12.4646
▁Precisely	-12.4646
▁Varela	-12.4646
▁Voluntary	-12.4646
▁contravention	-12.4646
▁default	-12.4646
▁ferry	-12.4646
▁optimal	-12.4646
▁stoning	-12.4646
▁amazing	-12.4646
▁admissible	-12.4647
▁Louis	-12.4647
▁compiled	-12.465
▁Anna	-12.4652
▁consign	-12.4657
▁majorities	-12.4669
▁endure	-12.4671
Y	-12.4671
▁recalling	-12.4671
▁counterpart	-12.4672
▁Sub	-12.4675
▁125	-12.4679
government	-12.4681
commercial	-12.4684
▁attracting	-12.4686
▁Abbas	-12.4691
▁Closure	-12.4691
▁INTERREG	-12.4691
▁Rhine	-12.4691
▁audience	-12.4691
▁munitions	-12.4691
▁vein	-12.4691
▁kidnapping	-12.4691
▁brink	-12.4691
▁earnings	-12.4692
▁crack	-12.4692
▁guise	-12.4692
▁Perry	-12.4693
▁waive	-12.4696
▁Mov	-12.4699
▁cage	-12.4699
▁Christianity	-12.47
▁ambassador	-12.4702
▁mindful	-12.4704
▁multicultural	-12.4704
▁Governor	-12.471
1/2001	-12.4723
▁Dam	-12.4724
driven	-12.4729
▁Budapest	-12.4736
▁arrogant	-12.4736
▁stolen	-12.4736
▁stubborn	-12.4736
▁arable	-12.4737
▁rotation	-12.4742
▁73	-12.4747
▁healthier	-12.475
▁metal	-12.4752
▁rent	-12.4754
▁applauded	-12.4767
examine	-12.4769
ette	-12.4774
▁founder	-12.4775
▁streamline	-12.4777
▁hell	-12.4779
▁kindly	-12.478
▁greet	-12.4782
▁Ahern	-12.4782
▁Already	-12.4782
▁Deprez	-12.4782
▁Equator	-12.4782
▁Hänsch	-12.4782
▁Lagendijk	-12.4782
▁Manuel	-12.4782
▁Opel	-12.4782
▁squeez	-12.4782
▁Schmid	-12.4782
▁boil	-12.4784
▁Fair	-12.4784
▁enforceable	-12.4786
▁tyres	-12.4787
▁catering	-12.479
án	-12.4808
meat	-12.4813
–	-12.4817
shore	-12.4819
91/	-12.4822
▁delight	-12.4822
▁elephant	-12.4827
▁monument	-12.4827
▁ACTA	-12.4827
▁Congolese	-12.4827
▁Davies	-12.4827
▁Naples	-12.4827
▁Peijs	-12.4827
▁babies	-12.4827
▁cadmium	-12.4827
▁hesitant	-12.4827
▁practicable	-12.4827
▁savage	-12.4827
▁severity	-12.4827
▁Tobin	-12.4827
▁outlining	-12.4827
▁trample	-12.4827
▁communicating	-12.4827
▁tolerant	-12.4827
▁Promot	-12.4827
▁Verification	-12.4827
▁proposition	-12.4827
▁custom	-12.4835
▁embryo	-12.4839
▁prolonged	-12.484
▁76	-12.4841
▁compliments	-12.4861
▁designations	-12.4865
SMEs	-12.4865
▁ride	-12.4869
▁deserved	-12.4869
fair	-12.487
▁interlocutor	-12.4873
▁Regulator	-12.4873
▁combustion	-12.4873
▁commemorate	-12.4873
▁degrading	-12.4873
▁meagre	-12.4873
▁redouble	-12.4873
▁reversal	-12.4873
▁crux	-12.4873
▁ICC	-12.4873
▁Long	-12.4874
▁selfish	-12.4878
▁dating	-12.4878
39	-12.4881
▁remainder	-12.4882
98)	-12.4885
range	-12.4887
▁weekly	-12.4888
▁lur	-12.489
▁Mc	-12.4894
▁Compar	-12.4909
▁Romano	-12.4909
▁blamed	-12.4909
▁drag	-12.4911
▁pressed	-12.4913
▁homeless	-12.4918
▁Müller	-12.4919
▁SAVE	-12.4919
▁Tajikistan	-12.4919
▁armaments	-12.4919
▁holistic	-12.4919
▁levies	-12.4919
▁recreational	-12.4919
▁Ramos	-12.4919
▁underpinned	-12.4919
▁cement	-12.4919
▁marginalisation	-12.492
▁cord	-12.4922
▁importation	-12.4926
▁technique	-12.4932
▁Kok	-12.495
▁distorting	-12.4954
▁empower	-12.4956
distance	-12.4957
▁victor	-12.4963
▁Wijsenbeek	-12.4965
▁irrational	-12.4965
▁streamlining	-12.4965
▁dissent	-12.4965
▁Coordination	-12.4965
▁Roure	-12.4966
02)	-12.4967
▁parity	-12.4967
▁sink	-12.4967
▁Maria	-12.4971
▁proceeded	-12.4976
▁Borders	-12.4983
profit	-12.4987
▁Gas	-12.4987
grade	-12.4988
▁praised	-12.4989
cultural	-12.5002
Z	-12.5003
technological	-12.5003
▁shaped	-12.5005
ulating	-12.5008
▁Bolivia	-12.5011
▁Frankly	-12.5011
▁consular	-12.5011
▁dementia	-12.5011
▁deputy	-12.5011
▁juvenile	-12.5011
▁persuasion	-12.5011
▁primacy	-12.5011
▁stifle	-12.5011
▁Grand	-12.5012
▁factions	-12.5012
▁Land	-12.5016
▁invade	-12.502
ught	-12.5025
▁79	-12.5025
▁calmly	-12.5029
industrial	-12.503
ency	-12.5043
▁additionality	-12.5043
hip	-12.5044
▁ambassadors	-12.5046
2003)	-12.5048
rooted	-12.505
94/	-12.5051
▁guilt	-12.5055
▁peculiar	-12.5057
▁accumulation	-12.5057
▁revitalise	-12.5057
▁shrink	-12.5057
▁untenable	-12.5057
▁UKIP	-12.5058
▁cruelty	-12.5059
fighting	-12.5059
▁tide	-12.5059
▁authorization	-12.5059
▁marketplace	-12.5066
tel	-12.5066
▁persists	-12.5067
OM	-12.5073
▁republic	-12.5074
▁bottlenecks	-12.5076
▁qui	-12.5086
▁See	-12.5087
existence	-12.5096
var	-12.5099
valuation	-12.5101
5(	-12.5103
ordination	-12.5103
▁Effective	-12.5104
▁Kabul	-12.5104
▁paedophile	-12.5104
▁uneven	-12.5104
▁ECJ	-12.5105
▁encompasses	-12.5107
▁breached	-12.5109
▁Often	-12.5112
▁uniformity	-12.5114
▁ocean	-12.5119
2001)	-12.5119
▁hampered	-12.5123
▁restate	-12.5125
▁brutally	-12.5126
▁hazards	-12.5127
▁optimis	-12.5135
dio	-12.5141
9/2001	-12.5144
▁rotat	-12.5146
▁Facility	-12.5151
▁Nowadays	-12.5151
▁Paasilinna	-12.5151
▁accelerating	-12.5151
▁attributable	-12.5151
▁diamond	-12.5151
▁hauliers	-12.5151
▁opium	-12.5151
▁wheat	-12.5151
▁Provid	-12.5151
▁Liberia	-12.5151
▁Project	-12.5151
▁complicity	-12.5152
▁cheat	-12.5152
▁restart	-12.5156
aire	-12.516
▁pioneering	-12.5163
▁burn	-12.5176
▁complicate	-12.5193
▁merge	-12.5196
▁Tindemans	-12.5198
▁adequacy	-12.5198
▁authoritative	-12.5198
▁descend	-12.5198
▁enquiry	-12.5198
▁scratch	-12.5198
▁unbundling	-12.5198
▁undeniably	-12.5198
Bissau	-12.5198
▁conclusive	-12.5198
▁Martínez	-12.5198
▁Fiji	-12.5198
▁strip	-12.5198
▁deferred	-12.5199
▁objectivity	-12.5199
ampton	-12.5199
▁Orden	-12.5199
▁Pensioners	-12.5199
▁dividend	-12.5199
▁impartiality	-12.5201
▁realistically	-12.5203
rom	-12.5206
▁170	-12.5206
34	-12.5211
▁EIT	-12.5211
stone	-12.5212
75	-12.5225
▁1.1	-12.5229
blo	-12.5235
tariff	-12.5238
information	-12.5238
ultiannual	-12.5238
▁Particular	-12.524
chair	-12.524
▁wholehearted	-12.5244
▁1979	-12.5246
▁Andalusia	-12.5246
▁Blue	-12.5246
▁Brenner	-12.5246
▁Gargani	-12.5246
▁Lynne	-12.5246
▁Montreal	-12.5246
▁Norwegian	-12.5246
▁Spencer	-12.5246
▁starvation	-12.5246
▁terminology	-12.5246
▁skilful	-12.5246
▁flaws	-12.5247
▁Macedonian	-12.5247
▁frustrated	-12.5248
▁satisfying	-12.525
▁halfway	-12.5252
▁externally	-12.5256
▁shoes	-12.5256
▁unambiguously	-12.5259
▁unfairly	-12.5261
▁entitlement	-12.5262
▁troubled	-12.5269
▁7%	-12.527
▁symptoms	-12.5274
sky	-12.5276
force	-12.5288
ermanent	-12.5293
▁Hezbollah	-12.5293
▁Major	-12.5293
▁Meeting	-12.5293
▁bovine	-12.5293
▁creator	-12.5293
▁homophobia	-12.5293
▁pause	-12.5293
▁bury	-12.5293
▁Army	-12.5294
▁beaten	-12.5294
▁1950	-12.5295
▁exhibition	-12.5296
▁Waste	-12.5297
▁inserted	-12.5304
▁centred	-12.5312
▁conversations	-12.5315
▁speeded	-12.5319
▁tendering	-12.5325
ken	-12.5328
mmed	-12.5329
▁accords	-12.5333
▁Papayannakis	-12.5341
▁cyanide	-12.5341
▁geography	-12.5341
▁imperfect	-12.5341
▁pivotal	-12.5341
▁suffrage	-12.5341
▁triangle	-12.5341
▁vicinity	-12.5341
▁ruthless	-12.5341
▁foolish	-12.5341
▁polar	-12.5341
▁democratization	-12.5342
▁160	-12.5342
▁dismantled	-12.5349
▁twofold	-12.5356
▁spared	-12.5356
▁tree	-12.5358
door	-12.536
▁colours	-12.5362
▁provinces	-12.5363
It	-12.5364
▁broadening	-12.5365
enthusiastically	-12.5371
▁declined	-12.5372
▁Estonian	-12.5373
▁phones	-12.5383
▁militari	-12.5384
▁imagined	-12.5387
▁Hitler	-12.5389
▁López	-12.5389
▁MAI	-12.5389
▁Monterrey	-12.5389
▁admirable	-12.5389
▁analytical	-12.5389
▁influencing	-12.5389
▁measurable	-12.5389
▁plague	-12.5389
▁preceding	-12.5389
▁relentless	-12.5389
▁behaving	-12.5389
▁blacklist	-12.539
▁Shi	-12.5391
▁federalism	-12.5393
▁convened	-12.5394
▁hectare	-12.5407
▁complained	-12.5413
-07	-12.5415
ime	-12.5416
disciplinary	-12.543
▁175	-12.5436
▁Sarajevo	-12.5438
▁Thomas	-12.5438
▁VOTE	-12.5438
▁diabetes	-12.5438
▁inconvenience	-12.5438
▁questionnaire	-12.5438
▁scapegoat	-12.5438
▁counsel	-12.5438
▁immoral	-12.5438
▁ITER	-12.5438
▁resounding	-12.5438
▁incitement	-12.5439
▁Less	-12.5443
▁professionalism	-12.545
▁su	-12.5453
▁97	-12.5456
face	-12.546
don	-12.5478
well	-12.5485
▁lunch	-12.5486
▁Diamandouros	-12.5486
▁Ottawa	-12.5486
▁eighteen	-12.5486
▁gauge	-12.5486
▁implant	-12.5486
▁inconsistency	-12.5486
▁inherited	-12.5486
▁axis	-12.5486
▁Fabre	-12.5486
▁pirate	-12.5486
▁cabinet	-12.5487
▁residential	-12.5487
▁1960	-12.5488
▁poet	-12.5488
▁weighting	-12.5489
▁retraining	-12.549
lop	-12.549
▁resorting	-12.5491
▁upgrade	-12.5493
▁Ob	-12.5496
▁exporter	-12.55
▁motive	-12.5505
▁motorway	-12.5506
▁genes	-12.5514
▁Christ	-12.5515
▁pioneer	-12.5523
reading	-12.5526
German	-12.5527
prepared	-12.5527
▁motivate	-12.553
▁Mari	-12.553
Aubrespy	-12.5535
▁Schüssel	-12.5535
▁appliances	-12.5535
▁emigration	-12.5535
▁footwear	-12.5535
▁intensification	-12.5535
▁reiterating	-12.5535
▁renovation	-12.5535
▁Subcommittee	-12.5535
▁Seven	-12.5535
▁omitted	-12.5535
▁erect	-12.5535
▁sister	-12.5536
▁Duma	-12.5536
▁equation	-12.5536
▁harmonized	-12.5541
▁compounds	-12.5547
▁stark	-12.5553
▁purchased	-12.5557
▁steering	-12.5562
▁embarking	-12.5564
▁assign	-12.5571
▁divert	-12.5576
energy	-12.5576
▁sine	-12.5578
▁disseminate	-12.5579
▁succession	-12.558
▁EFD	-12.5584
▁atypical	-12.5584
▁depressing	-12.5584
▁legislating	-12.5584
▁precision	-12.5584
▁prudence	-12.5584
▁spoil	-12.5584
▁terribly	-12.5584
▁Campania	-12.5584
▁casualties	-12.5584
▁Though	-12.5584
▁doomed	-12.5584
▁Weiler	-12.5584
▁pump	-12.5585
▁Still	-12.5586
▁obsession	-12.5586
▁mill	-12.5586
▁dismissal	-12.5588
6-04	-12.5589
▁scr	-12.5597
▁disorders	-12.5599
▁resigned	-12.5599
institutional	-12.5599
▁supermarkets	-12.5601
▁92/	-12.5601
▁bureaucrats	-12.5606
▁tense	-12.5609
▁Membership	-12.561
▁fortress	-12.5618
▁Open	-12.5622
▁humiliation	-12.5633
▁Account	-12.5633
▁Cresson	-12.5633
▁Crime	-12.5633
▁Garriga	-12.5633
▁Macao	-12.5633
▁Purvis	-12.5633
▁URBAN	-12.5633
▁elapsed	-12.5633
▁literature	-12.5633
▁paralysis	-12.5633
▁polite	-12.5633
▁populism	-12.5633
▁reprehensible	-12.5633
▁Wolf	-12.5633
▁IAEA	-12.5633
▁Large	-12.5633
▁slowdown	-12.5634
▁bright	-12.5635
▁unitary	-12.5636
▁punishable	-12.5636
▁fascist	-12.5636
CAP	-12.5638
▁sufferers	-12.5649
▁regulator	-12.5651
▁prerogative	-12.5653
ease	-12.566
▁holder	-12.5663
▁redefine	-12.5665
▁watched	-12.5665
▁entitlements	-12.5666
▁posting	-12.5674
▁enlighten	-12.5674
▁recovering	-12.5677
▁Current	-12.5677
2000	-12.5682
▁Bonde	-12.5683
▁Fukushima	-12.5683
▁accustomed	-12.5683
▁apportion	-12.5683
▁compatriot	-12.5683
▁fertiliser	-12.5683
▁protagonist	-12.5683
▁vodka	-12.5683
▁drown	-12.5683
▁Moura	-12.5683
▁shifted	-12.5685
▁regretted	-12.5689
unit	-12.569
▁avoidance	-12.5696
position	-12.5702
▁bird	-12.5704
▁defender	-12.5704
▁180	-12.5704
▁Kof	-12.5712
▁punishing	-12.5714
terior	-12.5716
elle	-12.5722
▁insufficiently	-12.5727
▁deteriorate	-12.5727
▁74	-12.573
▁Steel	-12.5732
▁compromising	-12.5732
▁illiteracy	-12.5732
▁magazine	-12.5732
▁tractors	-12.5732
▁vitamin	-12.5732
▁glaring	-12.5732
▁scant	-12.5733
▁denies	-12.5734
Scott	-12.5735
▁cultivated	-12.5736
usz	-12.5741
▁complications	-12.5747
▁retreat	-12.5755
▁storms	-12.5763
▁hat	-12.5768
▁discusses	-12.5781
▁Ya	-12.5782
▁Borrell	-12.5782
▁Gröner	-12.5782
▁devastation	-12.5782
▁unanswered	-12.5782
▁shark	-12.5782
▁stigma	-12.5782
▁dilute	-12.5782
▁Casaca	-12.5783
▁Confederation	-12.5783
▁1967	-12.5783
état	-12.5783
▁interception	-12.5785
▁emotions	-12.5786
▁repayment	-12.5787
▁115	-12.5789
▁3.5	-12.579
▁testify	-12.5793
path	-12.5795
▁Moldovan	-12.5811
▁withstand	-12.5815
fri	-12.5817
culture	-12.5825
nuclear	-12.5825
▁convene	-12.5828
▁Developing	-12.5833
▁Honduras	-12.5833
▁arsenal	-12.5833
▁paternity	-12.5833
▁fauna	-12.5833
▁relinquish	-12.5833
▁herald	-12.5833
▁inject	-12.5833
▁distinctive	-12.5835
▁boxes	-12.5836
▁diminished	-12.5845
▁borrowing	-12.5849
▁invented	-12.585
▁hindered	-12.5859
▁complainant	-12.5863
Palestinian	-12.5876
citizens	-12.5876
eastern	-12.5876
▁Discussion	-12.5883
▁Eurovignette	-12.5883
▁Pérez	-12.5883
▁destabilising	-12.5883
▁guerrilla	-12.5883
▁hostilities	-12.5883
▁midnight	-12.5883
ú	-12.5883
▁underlining	-12.5883
▁Explanations	-12.5883
▁Local	-12.5884
▁fastest	-12.5888
▁tissues	-12.5889
▁elementary	-12.5892
▁delegate	-12.5902
▁culturally	-12.5913
▁der	-12.5914
▁intensifying	-12.5917
source	-12.5925
sensitive	-12.5926
▁Beyond	-12.5934
▁lucrative	-12.5934
▁ministries	-12.5934
▁outweigh	-12.5934
▁prevalent	-12.5934
▁1976	-12.5934
▁Emissions	-12.5934
▁Brown	-12.5934
▁loyalty	-12.5935
▁feedback	-12.5935
▁madness	-12.5936
▁chairing	-12.5938
▁Mark	-12.5939
▁ear	-12.5941
▁discovery	-12.5942
▁bogg	-12.5944
eye	-12.5953
▁deadly	-12.5969
6/97	-12.5971
ground	-12.5972
▁carers	-12.5972
▁anchor	-12.5977
▁Mayor	-12.5977
special	-12.5978
▁149(8))	-12.5985
▁Echelon	-12.5985
▁Liechtenstein	-12.5985
▁NUTS	-12.5985
▁inadequacy	-12.5985
▁jeopardy	-12.5985
▁swept	-12.5985
▁tandem	-12.5985
▁slots	-12.5985
▁hint	-12.5986
▁unwillingness	-12.5987
▁Andean	-12.5988
▁theatre	-12.599
▁preside	-12.5991
page	-12.5991
▁businessmen	-12.5995
ump	-12.6
▁underdeveloped	-12.6
▁mainland	-12.6003
▁obstruction	-12.6004
▁Bosnian	-12.6008
▁Accord	-12.6024
▁ideally	-12.6026
health	-12.6029
legal	-12.6029
▁pluralist	-12.6036
Explanation	-12.6036
▁Cederschiöld	-12.6036
▁abducted	-12.6036
▁anticipating	-12.6036
▁hungry	-12.6036
▁judging	-12.6036
▁nitrogen	-12.6036
▁remedied	-12.6036
▁sacred	-12.6036
▁segregation	-12.6036
▁unbridled	-12.6036
▁unhealthy	-12.6036
▁knee	-12.6036
▁extradite	-12.6036
▁roof	-12.6037
MR	-12.6037
▁smokers	-12.6038
rail	-12.6039
▁frightening	-12.6041
-04	-12.6041
▁1.3	-12.6055
▁plug	-12.6068
▁conserve	-12.6071
strict	-12.6079
legislative	-12.608
hull	-12.6081
▁Euromed	-12.6083
itted	-12.6083
▁distinguishing	-12.6083
▁Bjerregaard	-12.6088
▁Bologna	-12.6088
▁Figueiredo	-12.6088
▁Schmitt	-12.6088
▁Troika	-12.6088
▁buried	-12.6088
▁crazy	-12.6088
▁pragmatism	-12.6088
▁crossroads	-12.6088
▁exponential	-12.6088
▁inventory	-12.6088
▁extinction	-12.6088
▁Miert	-12.6088
▁1975	-12.6089
▁fence	-12.609
▁Vol	-12.6093
▁Carl	-12.6096
▁Fre	-12.6099
eviating	-12.6101
▁portal	-12.6116
▁lapses	-12.6135
ncreased	-12.6139
▁Pursu	-12.614
▁NAFO	-12.614
▁Quality	-12.614
▁spontaneous	-12.614
▁verge	-12.614
▁encroach	-12.614
▁thwart	-12.614
▁Instance	-12.614
▁density	-12.614
▁Export	-12.614
▁uncover	-12.614
▁mountainous	-12.6141
▁reimbursed	-12.6144
▁summon	-12.6145
▁streamlined	-12.6145
0/98	-12.6149
▁telecoms	-12.6152
roll	-12.6153
▁selecting	-12.6162
4-06	-12.617
▁planes	-12.6176
▁hindering	-12.6179
▁feat	-12.6191
▁architect	-12.6191
▁Curtain	-12.6192
▁EAGGF	-12.6192
▁GNI	-12.6192
▁Pinochet	-12.6192
▁Söderman	-12.6192
▁cessation	-12.6192
▁fodder	-12.6192
▁insolvency	-12.6192
▁misunderstood	-12.6192
▁sanitation	-12.6192
▁unjustifiable	-12.6192
0,000	-12.6192
▁Kiev	-12.6193
▁pessimistic	-12.6195
▁criticized	-12.6196
▁spin	-12.6196
▁COP	-12.6198
▁trademark	-12.6198
▁advancement	-12.6209
▁diminishing	-12.621
▁loved	-12.6211
▁modernised	-12.6215
▁biofuel	-12.6218
▁preparedness	-12.6227
▁egg	-12.6228
▁periodic	-12.6232
version	-12.6236
exploit	-12.6237
State	-12.6237
fits	-12.6237
▁prosper	-12.6243
▁Srebrenica	-12.6244
▁starving	-12.6244
▁testimony	-12.6244
▁turmoil	-12.6244
▁void	-12.6244
▁Frankfurt	-12.6244
▁separatist	-12.6244
▁Important	-12.6244
7/2001	-12.6246
▁appealed	-12.6247
De	-12.6248
▁cooling	-12.6256
RT	-12.6268
▁Pol	-12.6268
rated	-12.6272
mplementing	-12.6278
▁republics	-12.628
▁lessen	-12.6283
▁oppress	-12.6287
constitution	-12.6289
FP	-12.6289
origin	-12.6289
▁tailor	-12.629
African	-12.6292
▁indebted	-12.6296
ccupied	-12.6296
▁Enterprise	-12.6297
▁Pronk	-12.6297
▁scanners	-12.6297
▁conscientious	-12.6297
▁Think	-12.6297
▁abstentions	-12.6298
▁potatoes	-12.6299
▁aeroplanes	-12.6302
7/97	-12.6304
▁Galician	-12.6309
▁152	-12.632
▁Serb	-12.6324
▁Refugee	-12.6324
▁tanker	-12.6324
▁loophole	-12.6324
▁picked	-12.6336
3/97	-12.6336
▁92	-12.6348
#	-12.635
▁Immunities	-12.635
▁Passenger	-12.635
▁Science	-12.635
▁hindrance	-12.635
▁recycled	-12.635
▁satisfies	-12.635
▁sensitivities	-12.635
▁partisan	-12.635
▁beauty	-12.635
▁purse	-12.635
▁planting	-12.635
▁fever	-12.6351
6/2001	-12.6355
▁Zimbabwean	-12.6356
▁lucky	-12.6357
▁volunteering	-12.6357
▁omissions	-12.6358
▁explored	-12.6362
▁Panel	-12.6366
EX	-12.6367
▁reopening	-12.6369
▁escaped	-12.6372
▁distressing	-12.6373
▁hazard	-12.6377
▁endangering	-12.6379
2003	-12.6385
2/2001	-12.639
system	-12.6395
compulsory	-12.6396
▁Specific	-12.6402
▁cartels	-12.6403
▁Ferreira	-12.6403
▁Schwaiger	-12.6403
▁arbitration	-12.6403
▁despicable	-12.6403
▁inferior	-12.6403
▁oxide	-12.6403
▁parcel	-12.6403
▁preclude	-12.6403
▁suspicious	-12.6403
▁multiply	-12.6403
▁guess	-12.6403
▁shout	-12.6403
▁Blak	-12.6403
oil	-12.6403
versus	-12.6403
▁dogmatic	-12.6403
▁interregional	-12.6404
▁possesses	-12.6407
duct	-12.6433
▁pollute	-12.6433
▁headline	-12.6433
AP	-12.6435
ologists	-12.6442
▁equ	-12.6443
▁maxim	-12.6444
0/2001	-12.6444
▁minerals	-12.6451
00):	-12.6455
embracing	-12.6456
▁Catania	-12.6456
▁Chief	-12.6456
▁Companies	-12.6456
▁EPLP	-12.6456
▁Eurlings	-12.6456
▁Miguélez	-12.6456
▁accru	-12.6456
▁comparing	-12.6456
▁heaven	-12.6456
▁hostility	-12.6456
▁indisputable	-12.6456
▁philosophical	-12.6456
▁swallow	-12.6456
▁practitioners	-12.6456
▁Keyser	-12.6456
▁sample	-12.6456
▁gentleman	-12.6456
▁Guard	-12.6457
▁Bra	-12.6459
▁repress	-12.6459
▁worsen	-12.6459
▁theft	-12.6462
▁terminate	-12.6463
▁handicaps	-12.6469
▁Cambodian	-12.647
2004)	-12.6472
▁placement	-12.6474
▁correctness	-12.6477
▁justifying	-12.6479
▁overwhelmingly	-12.6482
▁concealed	-12.6487
▁resisted	-12.6488
creation	-12.6502
critical	-12.6502
▁shake	-12.6508
▁rationalise	-12.6508
▁accompli	-12.651
▁Schnellhardt	-12.651
▁Thousands	-12.651
▁circulating	-12.651
▁culminate	-12.651
▁flexibly	-12.651
▁interconnected	-12.651
▁phthalates	-12.651
▁probability	-12.651
▁liberate	-12.651
▁misinterpret	-12.651
▁Coast	-12.6511
▁Parish	-12.6514
▁commended	-12.6515
▁banner	-12.6516
▁eagerly	-12.6518
▁137	-12.6526
▁necessitate	-12.6534
▁designate	-12.6535
▁103	-12.6536
attached	-12.6557
▁harmless	-12.6559
▁Somali	-12.6564
▁Spaniard	-12.6564
▁crowd	-12.6564
▁Cabrol	-12.6564
▁Muscardini	-12.6564
▁Scheme	-12.6564
▁Tehran	-12.6564
▁arbitrarily	-12.6564
▁colonies	-12.6564
▁cynicism	-12.6564
▁thrive	-12.6564
▁Illegal	-12.6564
▁James	-12.6564
▁therapy	-12.6564
▁spotlight	-12.6564
▁imperialism	-12.6564
▁lady	-12.6565
▁penalising	-12.6565
PE	-12.6567
▁Rack	-12.6567
▁creditors	-12.6571
▁weighing	-12.6583
▁loading	-12.6585
represented	-12.6587
▁forbid	-12.6589
▁conversation	-12.6594
▁shipyard	-12.6594
▁Judg	-12.66
▁83	-12.6603
▁accus	-12.6606
financed	-12.6608
▁109	-12.6611
▁negat	-12.6618
▁1984	-12.6618
▁Cameroon	-12.6618
▁Oreja	-12.6618
▁PKK	-12.6618
▁Stevenson	-12.6618
▁Taoiseach	-12.6618
▁apartheid	-12.6618
▁atmospheric	-12.6618
▁humiliating	-12.6618
▁memories	-12.6618
▁subsidising	-12.6618
▁volatile	-12.6618
▁pseudo	-12.6618
▁Kohl	-12.6618
▁Plus	-12.6618
▁demon	-12.6619
▁quorum	-12.6619
▁Campos	-12.6619
▁manipulated	-12.6622
▁dated	-12.6624
▁sadness	-12.6625
assi	-12.6629
▁blatantly	-12.663
▁forged	-12.6631
▁containers	-12.6636
▁classify	-12.6637
▁reconstruct	-12.6645
▁device	-12.6649
born	-12.6654
▁bag	-12.6659
▁economists	-12.666
▁eighth	-12.6664
enterprises	-12.6666
▁expel	-12.6673
▁Building	-12.6673
▁Catalonia	-12.6673
▁Michael	-12.6673
▁helicopter	-12.6673
▁receptive	-12.6673
▁revoke	-12.6673
▁scarcity	-12.6673
▁tachograph	-12.6673
▁twentieth	-12.6673
▁cool	-12.6673
▁Militar	-12.6673
▁converge	-12.6673
▁prudential	-12.6674
▁pipe	-12.6675
aid	-12.6692
▁EPA	-12.6695
▁materialise	-12.6698
kh	-12.6699
labelling	-12.67
functioning	-12.672
▁harass	-12.6727
▁casual	-12.6728
▁Establish	-12.6728
▁Holocaust	-12.6728
▁Papua	-12.6728
▁Securities	-12.6728
▁Tamil	-12.6728
▁Vojvodina	-12.6728
▁addicts	-12.6728
▁immune	-12.6728
▁leeway	-12.6728
▁supervising	-12.6728
Laughter	-12.6728
▁refute	-12.6728
▁paramilitary	-12.6728
▁Vietnamese	-12.6728
▁Leyla	-12.6728
▁unqualified	-12.6729
▁barrel	-12.6729
▁petty	-12.6729
▁monk	-12.6729
▁locked	-12.6736
▁interruption	-12.6739
▁Bor	-12.6741
▁affirmation	-12.6741
▁plate	-12.6741
▁bankers	-12.6741
▁enriched	-12.6744
▁centralisation	-12.6749
IN	-12.6764
name	-12.6766
colonial	-12.6776
▁flout	-12.6778
egardless	-12.6783
sponsored	-12.6783
▁Considering	-12.6783
▁Improving	-12.6783
▁Migration	-12.6783
▁Souchet	-12.6783
▁anonymous	-12.6783
▁collateral	-12.6783
▁erroneous	-12.6783
▁reckon	-12.6783
▁tyranny	-12.6783
▁carrot	-12.6783
5­0	-12.6783
▁redirect	-12.6785
▁chip	-12.6785
▁dispense	-12.6789
▁Finn	-12.6791
▁attentively	-12.6791
SEC	-12.6798
tier	-12.6801
person	-12.6824
▁nitrates	-12.6828
▁93	-12.6828
▁112	-12.6829
Lisbon	-12.6831
peace	-12.6831
▁complemented	-12.6834
▁Improvement	-12.6839
▁bloodshed	-12.6839
▁medication	-12.6839
▁panacea	-12.6839
▁particulate	-12.6839
▁probable	-12.6839
▁stalemate	-12.6839
▁synonymous	-12.6839
▁compassion	-12.6839
▁infinite	-12.6839
▁stemming	-12.6839
▁pleasing	-12.6839
▁cogeneration	-12.6841
▁Polo	-12.6842
▁Press	-12.6845
grad	-12.6846
▁noticeable	-12.6847
▁uniformly	-12.6847
that	-12.685
▁reuse	-12.6851
igh	-12.6855
▁optimise	-12.6855
play	-12.6857
▁expire	-12.6867
▁supervisors	-12.6871
▁corridor	-12.6872
▁disappoint	-12.6873
▁cheaply	-12.6873
▁defenceless	-12.6883
piece	-12.6887
group	-12.6888
design	-12.6889
structuring	-12.6893
▁install	-12.6894
▁disregarding	-12.6894
▁Earlier	-12.6895
▁Everybody	-12.6895
▁Horn	-12.6895
▁engender	-12.6895
▁fascism	-12.6895
▁frequencies	-12.6895
▁implied	-12.6895
▁mitigation	-12.6895
▁paradigm	-12.6895
▁unbelievable	-12.6895
▁Morgantini	-12.6895
▁Veld	-12.6895
▁proverb	-12.6895
▁predictability	-12.6896
▁hair	-12.6896
▁patentability	-12.6897
▁Near	-12.6898
[...]
